{
  "version": "1.0",
  "truncation": null,
  "padding": null,
  "added_tokens": [],
  "normalizer": null,
  "pre_tokenizer": {
    "type": "WhitespaceSplit"
  },
  "post_processor": {
    "type": "TemplateProcessing",
    "single": [
      {
        "SpecialToken": {
          "id": "<s>",
          "type_id": 0
        }
      },
      {
        "Sequence": {
          "id": "A",
          "type_id": 0
        }
      },
      {
        "SpecialToken": {
          "id": "</s>",
          "type_id": 0
        }
      }
    ],
    "pair": [
      {
        "SpecialToken": {
          "id": "<s>",
          "type_id": 0
        }
      },
      {
        "Sequence": {
          "id": "A",
          "type_id": 0
        }
      },
      {
        "SpecialToken": {
          "id": "</s>",
          "type_id": 0
        }
      },
      {
        "SpecialToken": {
          "id": "</s>",
          "type_id": 0
        }
      },
      {
        "Sequence": {
          "id": "B",
          "type_id": 0
        }
      },
      {
        "SpecialToken": {
          "id": "</s>",
          "type_id": 0
        }
      }
    ],
    "special_tokens": {
      "</s>": {
        "id": "</s>",
        "ids": [
          2
        ],
        "tokens": [
          "</s>"
        ]
      },
      "<s>": {
        "id": "<s>",
        "ids": [
          0
        ],
        "tokens": [
          "<s>"
        ]
      }
    }
  },
  "decoder": {
    "type": "BPEDecoder",
    "suffix": "</w>"
  },
  "model": {
    "type": "BPE",
    "dropout": null,
    "unk_token": "<unk>",
    "continuing_subword_prefix": null,
    "end_of_word_suffix": "</w>",
    "fuse_unk": false,
    "vocab": {
      "<s>": 0,
      "<pad>": 1,
      "</s>": 2,
      "<unk>": 3,
      ",</w>": 4,
      ".</w>": 5,
      "và</w>": 6,
      "của</w>": 7,
      "là</w>": 8,
      "các</w>": 9,
      "có</w>": 10,
      "được</w>": 11,
      "trong</w>": 12,
      "cho</w>": 13,
      "đã</w>": 14,
      "với</w>": 15,
      "một</w>": 16,
      "không</w>": 17,
      "người</w>": 18,
      ")</w>": 19,
      "(</w>": 20,
      "những</w>": 21,
      "\"</w>": 22,
      "này</w>": 23,
      "để</w>": 24,
      "ở</w>": 25,
      "khi</w>": 26,
      ":</w>": 27,
      "về</w>": 28,
      "năm</w>": 29,
      "đến</w>": 30,
      "-</w>": 31,
      "cũng</w>": 32,
      "vào</w>": 33,
      "trên</w>": 34,
      "tại</w>": 35,
      "nhiều</w>": 36,
      "đó</w>": 37,
      "sẽ</w>": 38,
      "từ</w>": 39,
      "ra</w>": 40,
      "phải</w>": 41,
      "như</w>": 42,
      "ngày</w>": 43,
      "lại</w>": 44,
      "bị</w>": 45,
      "ông</w>": 46,
      "làm</w>": 47,
      "hơn</w>": 48,
      "việc</w>": 49,
      "còn</w>": 50,
      "nhưng</w>": 51,
      "đang</w>": 52,
      "sau</w>": 53,
      "thì</w>": 54,
      "biết</w>": 55,
      "Việt_Nam</w>": 56,
      "đi</w>": 57,
      "nước</w>": 58,
      "rất</w>": 59,
      "mới</w>": 60,
      "sự</w>": 61,
      "có_thể</w>": 62,
      "theo</w>": 63,
      "mà</w>": 64,
      ";</w>": 65,
      "chỉ</w>": 66,
      "nhất</w>": 67,
      "mình</w>": 68,
      "nhà</w>": 69,
      "tôi</w>": 70,
      "trước</w>": 71,
      "lên</w>": 72,
      "con</w>": 73,
      "vẫn</w>": 74,
      "tới</w>": 75,
      "2</w>": 76,
      "nên</w>": 77,
      "tháng</w>": 78,
      "Theo</w>": 79,
      "đồng</w>": 80,
      "cùng</w>": 81,
      "hai</w>": 82,
      "anh</w>": 83,
      "cao</w>": 84,
      "khác</w>": 85,
      "họ</w>": 86,
      "rằng</w>": 87,
      "bạn</w>": 88,
      "qua</w>": 89,
      "vì</w>": 90,
      "do</w>": 91,
      "Trong</w>": 92,
      "Mỹ</w>": 93,
      "cả</w>": 94,
      "/</w>": 95,
      "nói</w>": 96,
      "đây</w>": 97,
      "tỉnh</w>": 98,
      "1</w>": 99,
      "số</w>": 100,
      "lần</w>": 101,
      "chưa</w>": 102,
      "lớn</w>": 103,
      "'</w>": 104,
      "xe</w>": 105,
      "cô</w>": 106,
      "3</w>": 107,
      "thấy</w>": 108,
      "đường</w>": 109,
      "cuộc</w>": 110,
      "đưa</w>": 111,
      "thực_hiện</w>": 112,
      "triệu</w>": 113,
      "?</w>": 114,
      "cần</w>": 115,
      "tổ_chức</w>": 116,
      "sử_dụng</w>": 117,
      "hay</w>": 118,
      "hàng</w>": 119,
      "Hà_Nội</w>": 120,
      "bằng</w>": 121,
      "khiến</w>": 122,
      "tiền</w>": 123,
      "gần</w>": 124,
      "Bộ</w>": 125,
      "tuổi</w>": 126,
      "đầu</w>": 127,
      "tăng</w>": 128,
      "thứ</w>": 129,
      "thời_gian</w>": 130,
      "đều</w>": 131,
      "hoạt_động</w>": 132,
      "giá</w>": 133,
      "phát_triển</w>": 134,
      "...</w>": 135,
      "nay</w>": 136,
      "khoảng</w>": 137,
      "nhau</w>": 138,
      "cách</w>": 139,
      "gây</w>": 140,
      "xây_dựng</w>": 141,
      "nào</w>": 142,
      "thêm</w>": 143,
      "Ảnh</w>": 144,
      "bên</w>": 145,
      "Các</w>": 146,
      "giữa</w>": 147,
      "gì</w>": 148,
      "huyện</w>": 149,
      "từng</w>": 150,
      "hoặc</w>": 151,
      "chiếc</w>": 152,
      "Tuy_nhiên</w>": 153,
      "nhận</w>": 154,
      "bà</w>": 155,
      "mang</w>": 156,
      "Anh</w>": 157,
      "đầu_tư</w>": 158,
      "chính</w>": 159,
      "khu_vực</w>": 160,
      "gia_đình</w>": 161,
      "Sau</w>": 162,
      "4</w>": 163,
      "vừa</w>": 164,
      "Trung_Quốc</w>": 165,
      "loại</w>": 166,
      "tốt</w>": 167,
      "Ông</w>": 168,
      "dự_án</w>": 169,
      "bán</w>": 170,
      "giúp</w>": 171,
      "một_số</w>": 172,
      "5</w>": 173,
      "Nga</w>": 174,
      "dùng</w>": 175,
      "xã</w>": 176,
      "trẻ</w>": 177,
      "vụ</w>": 178,
      "đất</w>": 179,
      "người_dân</w>": 180,
      "cấp</w>": 181,
      "rồi</w>": 182,
      "nếu</w>": 183,
      "điều</w>": 184,
      "mức</w>": 185,
      "tỷ</w>": 186,
      "thuộc</w>": 187,
      "mua</w>": 188,
      "nơi</w>": 189,
      "đối_với</w>": 190,
      "đầu_tiên</w>": 191,
      "điểm</w>": 192,
      "em</w>": 193,
      "tiếp_tục</w>": 194,
      "thông_tin</w>": 195,
      "trận</w>": 196,
      "giảm</w>": 197,
      "thế_giới</w>": 198,
      "tạo</w>": 199,
      "tin</w>": 200,
      "thi</w>": 201,
      "muốn</w>": 202,
      "ăn</w>": 203,
      "quá</w>": 204,
      "mỗi</w>": 205,
      "tham_gia</w>": 206,
      "mọi</w>": 207,
      "đạt</w>": 208,
      "quy_định</w>": 209,
      "10</w>": 210,
      "doanh_nghiệp</w>": 211,
      "trường</w>": 212,
      "chị</w>": 213,
      "thành_phố</w>": 214,
      "bộ</w>": 215,
      "phía</w>": 216,
      "Những</w>": 217,
      "Tôi</w>": 218,
      "lúc</w>": 219,
      "vấn_đề</w>": 220,
      "tên</w>": 221,
      "học</w>": 222,
      "bởi</w>": 223,
      "cái</w>": 224,
      "thị_trường</w>": 225,
      "đội</w>": 226,
      "ngoài</w>": 227,
      "USD</w>": 228,
      "diễn</w>": 229,
      "phần</w>": 230,
      "nó</w>": 231,
      "giờ</w>": 232,
      "kinh_tế</w>": 233,
      "đặc_biệt</w>": 234,
      "sống</w>": 235,
      "luôn</w>": 236,
      "ta</w>": 237,
      "gái</w>": 238,
      "nhỏ</w>": 239,
      "tìm</w>": 240,
      "ấy</w>": 241,
      "Một</w>": 242,
      "gặp</w>": 243,
      "vốn</w>": 244,
      "6</w>": 245,
      "so</w>": 246,
      "công_tác</w>": 247,
      "giải</w>": 248,
      "ngay</w>": 249,
      "Chủ_tịch</w>": 250,
      "Khi</w>": 251,
      "hệ_thống</w>": 252,
      "TP</w>": 253,
      "xảy</w>": 254,
      "ngành</w>": 255,
      "sản_xuất</w>": 256,
      "quốc_gia</w>": 257,
      "đẹp</w>": 258,
      "khả_năng</w>": 259,
      "quản_lý</w>": 260,
      "quyết_định</w>": 261,
      "biển</w>": 262,
      "công_ty</w>": 263,
      "UBND</w>": 264,
      "sản_phẩm</w>": 265,
      "phim</w>": 266,
      "xã_hội</w>": 267,
      "Phó</w>": 268,
      "mẹ</w>": 269,
      "chương_trình</w>": 270,
      "cơ_quan</w>": 271,
      "nhằm</w>": 272,
      "lấy</w>": 273,
      "mất</w>": 274,
      "vùng</w>": 275,
      "nhóm</w>": 276,
      "ai</w>": 277,
      "lời</w>": 278,
      "không_thể</w>": 279,
      "dưới</w>": 280,
      "khá</w>": 281,
      "Đây</w>": 282,
      "chúng_tôi</w>": 283,
      "ảnh</w>": 284,
      "yêu_cầu</w>": 285,
      "chủ</w>": 286,
      "đúng</w>": 287,
      "chia_sẻ</w>": 288,
      "mạng</w>": 289,
      "Công_ty</w>": 290,
      "hỗ_trợ</w>": 291,
      "phòng</w>": 292,
      "Nhưng</w>": 293,
      "tính</w>": 294,
      "sang</w>": 295,
      "địa_phương</w>": 296,
      "rõ</w>": 297,
      "sáng</w>": 298,
      "trở_thành</w>": 299,
      "giữ</w>": 300,
      "bóng</w>": 301,
      "thành</w>": 302,
      "mùa</w>": 303,
      "đơn_vị</w>": 304,
      "xem</w>": 305,
      "tay</w>": 306,
      "xuống</w>": 307,
      "bé</w>": 308,
      "nguồn</w>": 309,
      "xử_lý</w>": 310,
      "thường</w>": 311,
      "đủ</w>": 312,
      "Nếu</w>": 313,
      "liên_quan</w>": 314,
      "Chính_phủ</w>": 315,
      "khu</w>": 316,
      "7</w>": 317,
      "quận</w>": 318,
      "Ngày</w>": 319,
      "đặt</w>": 320,
      "Với</w>": 321,
      "làm_việc</w>": 322,
      "vòng</w>": 323,
      "Thủ_tướng</w>": 324,
      "loài</w>": 325,
      "bệnh</w>": 326,
      "chồng</w>": 327,
      "gọi</w>": 328,
      "kinh_doanh</w>": 329,
      "khó_khăn</w>": 330,
      "quan_trọng</w>": 331,
      "quốc_tế</w>": 332,
      "phát_hiện</w>": 333,
      "TP.</w>": 334,
      "chống</w>": 335,
      "khách</w>": 336,
      "kể</w>": 337,
      "bỏ</w>": 338,
      "nằm</w>": 339,
      "lực_lượng</w>": 340,
      "cơ_sở</w>": 341,
      "kiểm_tra</w>": 342,
      "ít</w>": 343,
      "chuyện</w>": 344,
      "Người</w>": 345,
      "ba</w>": 346,
      "Trước</w>": 347,
      "nữa</w>": 348,
      "đấu</w>": 349,
      "Việt</w>": 350,
      "hết</w>": 351,
      "cuối</w>": 352,
      "khỏi</w>": 353,
      "vàng</w>": 354,
      "tiếng</w>": 355,
      "tàu</w>": 356,
      "Đức</w>": 357,
      "8</w>": 358,
      "khó</w>": 359,
      "bảo_vệ</w>": 360,
      "triển_khai</w>": 361,
      "cạnh</w>": 362,
      "dài</w>": 363,
      "nhìn</w>": 364,
      "dành</w>": 365,
      "chết</w>": 366,
      "Công_an</w>": 367,
      "cây</w>": 368,
      "thu</w>": 369,
      "ảnh_hưởng</w>": 370,
      "hiệu_quả</w>": 371,
      "vợ</w>": 372,
      "mặt</w>": 373,
      "khẳng_định</w>": 374,
      "đánh_giá</w>": 375,
      "dẫn</w>": 376,
      "điều_tra</w>": 377,
      "độ</w>": 378,
      "chơi</w>": 379,
      "hiện</w>": 380,
      "!</w>": 381,
      "Tại</w>": 382,
      "HCM</w>": 383,
      "mạnh</w>": 384,
      "tự</w>": 385,
      "tuần</w>": 386,
      "bài</w>": 387,
      "du_lịch</w>": 388,
      "hoa</w>": 389,
      "chất_lượng</w>": 390,
      "buổi</w>": 391,
      "tất_cả</w>": 392,
      "lãnh_đạo</w>": 393,
      "kết_quả</w>": 394,
      "xuất_hiện</w>": 395,
      "đêm</w>": 396,
      "chạy</w>": 397,
      "thời_điểm</w>": 398,
      "dịch_vụ</w>": 399,
      "học_sinh</w>": 400,
      "nữ</w>": 401,
      "an_toàn</w>": 402,
      "bắt_đầu</w>": 403,
      "Từ</w>": 404,
      "chiều</w>": 405,
      "Sở</w>": 406,
      "Tổng_thống</w>": 407,
      "đảm_bảo</w>": 408,
      "gửi</w>": 409,
      "nghiên_cứu</w>": 410,
      "thay_đổi</w>": 411,
      "màu</w>": 412,
      "yêu</w>": 413,
      "đứng</w>": 414,
      "tình_trạng</w>": 415,
      "cán_bộ</w>": 416,
      "chung</w>": 417,
      "sinh</w>": 418,
      "phụ_nữ</w>": 419,
      "trường_hợp</w>": 420,
      "kế_hoạch</w>": 421,
      "điều_kiện</w>": 422,
      "sao</w>": 423,
      "quan_hệ</w>": 424,
      "hình_ảnh</w>": 425,
      "9</w>": 426,
      "môi_trường</w>": 427,
      "2017</w>": 428,
      "đối_tượng</w>": 429,
      "chuyển</w>": 430,
      "20</w>": 431,
      "Điều</w>": 432,
      "thành_công</w>": 433,
      "Năm</w>": 434,
      "cá_nhân</w>": 435,
      "phút</w>": 436,
      "chọn</w>": 437,
      "hiện_nay</w>": 438,
      "cầu_thủ</w>": 439,
      "Ban</w>": 440,
      "báo</w>": 441,
      "vị_trí</w>": 442,
      "trai</w>": 443,
      "chân</w>": 444,
      "12</w>": 445,
      "tấn_công</w>": 446,
      "hỏi</w>": 447,
      "giao_thông</w>": 448,
      "Nhiều</w>": 449,
      "Pháp</w>": 450,
      "máy_bay</w>": 451,
      "dân</w>": 452,
      "Không</w>": 453,
      "tuyến</w>": 454,
      "hướng</w>": 455,
      "HLV</w>": 456,
      "khoa_học</w>": 457,
      "&</w>": 458,
      "lớp</w>": 459,
      "miền</w>": 460,
      "công_nghệ</w>": 461,
      "điện</w>": 462,
      "đáng</w>": 463,
      "đôi</w>": 464,
      "riêng</w>": 465,
      "giá_trị</w>": 466,
      "viết</w>": 467,
      "dù</w>": 468,
      "cung_cấp</w>": 469,
      "nâng</w>": 470,
      "sớm</w>": 471,
      "văn_hoá</w>": 472,
      "quá_trình</w>": 473,
      "thấp</w>": 474,
      "giống</w>": 475,
      "trách_nhiệm</w>": 476,
      "giải_quyết</w>": 477,
      "khách_hàng</w>": 478,
      "gồm</w>": 479,
      "đánh</w>": 480,
      "Nhật_Bản</w>": 481,
      "da</w>": 482,
      "Để</w>": 483,
      "2016</w>": 484,
      "nhanh</w>": 485,
      "tiến_hành</w>": 486,
      "nghĩ</w>": 487,
      "vi_phạm</w>": 488,
      "tập_trung</w>": 489,
      "sông</w>": 490,
      "cuộc_sống</w>": 491,
      "Ngoài_ra</w>": 492,
      "quyền</w>": 493,
      "đá</w>": 494,
      "chính_thức</w>": 495,
      "thành_viên</w>": 496,
      "thiết_kế</w>": 497,
      "thiếu</w>": 498,
      "bước</w>": 499,
      "hoàn_toàn</w>": 500,
      "2018</w>": 501,
      "chính_sách</w>": 502,
      "Có</w>": 503,
      "30</w>": 504,
      "trả</w>": 505,
      "hộ</w>": 506,
      "chúng_ta</w>": 507,
      "đồng_thời</w>": 508,
      "bàn</w>": 509,
      "vượt</w>": 510,
      "quan_tâm</w>": 511,
      "phối_hợp</w>": 512,
      "nội_dung</w>": 513,
      "lao_động</w>": 514,
      "vài</w>": 515,
      "nước_ngoài</w>": 516,
      "sân</w>": 517,
      "lĩnh_vực</w>": 518,
      "Việc</w>": 519,
      "thật</w>": 520,
      "cơ_hội</w>": 521,
      "địa_bàn</w>": 522,
      "nghe</w>": 523,
      "hợp_tác</w>": 524,
      "lượng</w>": 525,
      "món</w>": 526,
      "nhiệm_vụ</w>": 527,
      "câu</w>": 528,
      "thuốc</w>": 529,
      "công_việc</w>": 530,
      "công_trình</w>": 531,
      "dòng</w>": 532,
      "phục_vụ</w>": 533,
      "nặng</w>": 534,
      "báo_cáo</w>": 535,
      "Hàn_Quốc</w>": 536,
      "bắt</w>": 537,
      "hãng</w>": 538,
      "thể_hiện</w>": 539,
      "tài_sản</w>": 540,
      "khán_giả</w>": 541,
      "nam</w>": 542,
      "thích</w>": 543,
      "Nhà_nước</w>": 544,
      "đầy</w>": 545,
      "chuẩn_bị</w>": 546,
      "đề_nghị</w>": 547,
      "mở</w>": 548,
      "phù_hợp</w>": 549,
      "chuyến</w>": 550,
      "chịu</w>": 551,
      "mục_tiêu</w>": 552,
      "đông</w>": 553,
      "đại_diện</w>": 554,
      "nổi_tiếng</w>": 555,
      "“</w>": 556,
      "phường</w>": 557,
      "máy</w>": 558,
      "Bên</w>": 559,
      "kỳ</w>": 560,
      "giành</w>": 561,
      "chỉ_đạo</w>": 562,
      "hiểu</w>": 563,
      "”</w>": 564,
      "án</w>": 565,
      "càng</w>": 566,
      "chất</w>": 567,
      "nền</w>": 568,
      "cá</w>": 569,
      "thế</w>": 570,
      "ý_kiến</w>": 571,
      "chúng</w>": 572,
      "thực_tế</w>": 573,
      "giao</w>": 574,
      "cháu</w>": 575,
      "công_bố</w>": 576,
      "hát</w>": 577,
      "thuế</w>": 578,
      "mối</w>": 579,
      "đóng</w>": 580,
      "Và</w>": 581,
      "chuyên_gia</w>": 582,
      "trực_tiếp</w>": 583,
      "pháp_luật</w>": 584,
      "mẫu</w>": 585,
      "lễ</w>": 586,
      "hợp_đồng</w>": 587,
      "quay</w>": 588,
      "hành_vi</w>": 589,
      "Nam</w>": 590,
      "trung_tâm</w>": 591,
      "dễ</w>": 592,
      "bất_ngờ</w>": 593,
      "sức_khoẻ</w>": 594,
      "nhờ</w>": 595,
      "như_vậy</w>": 596,
      "chứ</w>": 597,
      "Syria</w>": 598,
      "m</w>": 599,
      "xác_định</w>": 600,
      "điện_thoại</w>": 601,
      "đâu</w>": 602,
      "nhân_dân</w>": 603,
      "xa</w>": 604,
      "lòng</w>": 605,
      "giáo_dục</w>": 606,
      "trở_lại</w>": 607,
      "Đến</w>": 608,
      "giai_đoạn</w>": 609,
      "ngân_hàng</w>": 610,
      "xin</w>": 611,
      "tránh</w>": 612,
      "15</w>": 613,
      "bảng</w>": 614,
      "Quốc_hội</w>": 615,
      "thắng</w>": 616,
      "tăng_cường</w>": 617,
      "bản</w>": 618,
      "Cô</w>": 619,
      "bay</w>": 620,
      "Đảng</w>": 621,
      "Trường</w>": 622,
      "Đà_Nẵng</w>": 623,
      "11</w>": 624,
      "thương_mại</w>": 625,
      "vị</w>": 626,
      "thiết_bị</w>": 627,
      "Bộ_trưởng</w>": 628,
      "an_ninh</w>": 629,
      "cầu</w>": 630,
      "Còn</w>": 631,
      "làng</w>": 632,
      "cũ</w>": 633,
      "nhu_cầu</w>": 634,
      "Ở</w>": 635,
      "thường_xuyên</w>": 636,
      "diện_tích</w>": 637,
      "diễn_viên</w>": 638,
      "đoàn</w>": 639,
      "lựa_chọn</w>": 640,
      "mắt</w>": 641,
      "ngôi</w>": 642,
      "đào_tạo</w>": 643,
      "thậm_chí</w>": 644,
      "quả</w>": 645,
      "bao_gồm</w>": 646,
      "Cục</w>": 647,
      "chính_quyền</w>": 648,
      "sinh_viên</w>": 649,
      "nhân_viên</w>": 650,
      "đàn_ông</w>": 651,
      "thông_qua</w>": 652,
      "uống</w>": 653,
      "hôm</w>": 654,
      "thông_báo</w>": 655,
      "xanh</w>": 656,
      "nghề</w>": 657,
      "cứ</w>": 658,
      "kiểm_soát</w>": 659,
      "2015</w>": 660,
      "một_cách</w>": 661,
      "hoàn_thành</w>": 662,
      "ngồi</w>": 663,
      "Trung_tâm</w>": 664,
      "không_chỉ</w>": 665,
      "khoản</w>": 666,
      "chẳng</w>": 667,
      "toàn</w>": 668,
      "Đó</w>": 669,
      "Cũng</w>": 670,
      "thi_đấu</w>": 671,
      "tuyên_bố</w>": 672,
      "họp</w>": 673,
      "Về</w>": 674,
      "công</w>": 675,
      "trưởng</w>": 676,
      "thí_sinh</w>": 677,
      "lịch_sử</w>": 678,
      "mưa</w>": 679,
      "Bà</w>": 680,
      "giới</w>": 681,
      "trở</w>": 682,
      "chỗ</w>": 683,
      "thuê</w>": 684,
      "rừng</w>": 685,
      "bóng_đá</w>": 686,
      "đoạn</w>": 687,
      "hành_động</w>": 688,
      "đô_thị</w>": 689,
      "chụp</w>": 690,
      "thịt</w>": 691,
      "sở_hữu</w>": 692,
      "Giám_đốc</w>": 693,
      "thực_phẩm</w>": 694,
      "nuôi</w>": 695,
      "100</w>": 696,
      "vay</w>": 697,
      "tổng</w>": 698,
      "tài_chính</w>": 699,
      "lâu</w>": 700,
      "ghi</w>": 701,
      "vậy</w>": 702,
      "suốt</w>": 703,
      "thu_hút</w>": 704,
      "đảo</w>": 705,
      "kỹ_thuật</w>": 706,
      "tình_hình</w>": 707,
      "Tết</w>": 708,
      "vai_trò</w>": 709,
      "cuối_cùng</w>": 710,
      "bức</w>": 711,
      "cộng_đồng</w>": 712,
      "sách</w>": 713,
      "khai_thác</w>": 714,
      "phương_tiện</w>": 715,
      "Hai</w>": 716,
      "biện_pháp</w>": 717,
      "ban</w>": 718,
      "trồng</w>": 719,
      "rộng</w>": 720,
      "đăng_ký</w>": 721,
      "giải_pháp</w>": 722,
      "nhớ</w>": 723,
      "chiếm</w>": 724,
      "liên_tục</w>": 725,
      "ổn_định</w>": 726,
      "tích_cực</w>": 727,
      "ủng_hộ</w>": 728,
      "cơ_thể</w>": 729,
      "nguyên_nhân</w>": 730,
      "áp_dụng</w>": 731,
      "trái</w>": 732,
      "đời</w>": 733,
      "ngày_càng</w>": 734,
      "hồ_sơ</w>": 735,
      "Trung_ương</w>": 736,
      "nhạc</w>": 737,
      "nạn_nhân</w>": 738,
      "Loài</w>": 739,
      "lập</w>": 740,
      "chức_năng</w>": 741,
      "thực_sự</w>": 742,
      "truyền_thống</w>": 743,
      "bản_thân</w>": 744,
      "thăm</w>": 745,
      "Chúng_tôi</w>": 746,
      "ô_tô</w>": 747,
      "tầm</w>": 748,
      "bác_sĩ</w>": 749,
      "nguy_cơ</w>": 750,
      "trang</w>": 751,
      "vừa_qua</w>": 752,
      "vụ_việc</w>": 753,
      "con_người</w>": 754,
      "châu_Âu</w>": 755,
      "chú_ý</w>": 756,
      "bệnh_viện</w>": 757,
      "nợ</w>": 758,
      "vai</w>": 759,
      "sức</w>": 760,
      "Luật</w>": 761,
      "toàn_bộ</w>": 762,
      "thành_lập</w>": 763,
      "máu</w>": 764,
      "ký</w>": 765,
      "ca_sĩ</w>": 766,
      "nhanh_chóng</w>": 767,
      "A</w>": 768,
      "trắng</w>": 769,
      "-": 770,
      "cháy</w>": 771,
      "dừng</w>": 772,
      "nỗ_lực</w>": 773,
      "coi</w>": 774,
      "hạn_chế</w>": 775,
      "sự_kiện</w>": 776,
      "chi_phí</w>": 777,
      "núi</w>": 778,
      "đồ</w>": 779,
      "tên_lửa</w>": 780,
      "chục</w>": 781,
      "điều_trị</w>": 782,
      "Họ</w>": 783,
      "Hồ_Chí_Minh</w>": 784,
      "ứng_dụng</w>": 785,
      "giao_dịch</w>": 786,
      "cho_phép</w>": 787,
      "tấn</w>": 788,
      "bao_giờ</w>": 789,
      "thời</w>": 790,
      "cụ_thể</w>": 791,
      "Hội</w>": 792,
      "Hiện</w>": 793,
      "đất_nước</w>": 794,
      "đỏ</w>": 795,
      "Triều_Tiên</w>": 796,
      "áo</w>": 797,
      "bệnh_nhân</w>": 798,
      "trả_lời</w>": 799,
      "số_lượng</w>": 800,
      "nêu</w>": 801,
      "đứa</w>": 802,
      "2010</w>": 803,
      "mở_rộng</w>": 804,
      "cảnh</w>": 805,
      "tặng</w>": 806,
      "đơn</w>": 807,
      "sâu</w>": 808,
      "lý_do</w>": 809,
      "km</w>": 810,
      "chi</w>": 811,
      "chiến_thắng</w>": 812,
      "2014</w>": 813,
      "chứa</w>": 814,
      "Được</w>": 815,
      "nhà_nước</w>": 816,
      "quân_sự</w>": 817,
      "bổ_sung</w>": 818,
      "hình</w>": 819,
      "cảnh_sát</w>": 820,
      "50</w>": 821,
      "tinh_thần</w>": 822,
      "nhất_là</w>": 823,
      "nghìn</w>": 824,
      "chủ_yếu</w>": 825,
      "vé</w>": 826,
      "tai_nạn</w>": 827,
      "niềm</w>": 828,
      "quân</w>": 829,
      "quân_đội</w>": 830,
      "vô_cùng</w>": 831,
      "kéo_dài</w>": 832,
      "toà</w>": 833,
      "tập</w>": 834,
      "phố</w>": 835,
      "Đông</w>": 836,
      "chính_trị</w>": 837,
      "chăm_sóc</w>": 838,
      "kg</w>": 839,
      "vợ_chồng</w>": 840,
      "cảm_thấy</w>": 841,
      "ĐH</w>": 842,
      "Chỉ</w>": 843,
      "mời</w>": 844,
      "ngủ</w>": 845,
      "giới_thiệu</w>": 846,
      "Nguồn</w>": 847,
      "phí</w>": 848,
      "mấy</w>": 849,
      "Đại_học</w>": 850,
      "kinh_nghiệm</w>": 851,
      "hãy</w>": 852,
      "ca</w>": 853,
      "dự_kiến</w>": 854,
      "góp_phần</w>": 855,
      "nguyên</w>": 856,
      "hồi</w>": 857,
      "in</w>": 858,
      "Dù</w>": 859,
      "hạnh_phúc</w>": 860,
      "trẻ_em</w>": 861,
      "cổ</w>": 862,
      "công_an</w>": 863,
      "+</w>": 864,
      "nghệ_thuật</w>": 865,
      "Thái_Lan</w>": 866,
      "dịp</w>": 867,
      "công_nghiệp</w>": 868,
      "Ngay</w>": 869,
      "S": 870,
      "Uỷ_ban</w>": 871,
      "dân_tộc</w>": 872,
      "đem</w>": 873,
      "hiện_tại</w>": 874,
      "đáp_ứng</w>": 875,
      "câu_chuyện</w>": 876,
      "trăm</w>": 877,
      "tối</w>": 878,
      "tương_lai</w>": 879,
      "Trên</w>": 880,
      "cậu</w>": 881,
      "quý</w>": 882,
      "quy_hoạch</w>": 883,
      "></w>": 884,
      "tìm_kiếm</w>": 885,
      "thôi</w>": 886,
      "nhà_đầu_tư</w>": 887,
      "đổ</w>": 888,
      "to</w>": 889,
      "18</w>": 890,
      "rơi</w>": 891,
      "tỉ</w>": 892,
      "trở_nên</w>": 893,
      "phiên</w>": 894,
      "tham_dự</w>": 895,
      "cặp</w>": 896,
      "cho_hay</w>": 897,
      "nóng</w>": 898,
      "tỷ_lệ</w>": 899,
      "tốc_độ</w>": 900,
      "hiện_đại</w>": 901,
      "du_khách</w>": 902,
      "–</w>": 903,
      "M": 904,
      "trang_bị</w>": 905,
      "trao</w>": 906,
      "xuất_khẩu</w>": 907,
      "Bắc</w>": 908,
      "văn_bản</w>": 909,
      "Đặc_biệt</w>": 910,
      "vui</w>": 911,
      "nhấn_mạnh</w>": 912,
      "DN</w>": 913,
      "quê</w>": 914,
      "nghỉ</w>": 915,
      "tăng_trưởng</w>": 916,
      "tiếp</w>": 917,
      "tạm</w>": 918,
      "cắt</w>": 919,
      "bờ</w>": 920,
      "nghiêm_trọng</w>": 921,
      "nghèo</w>": 922,
      "báo_chí</w>": 923,
      "B": 924,
      "16</w>": 925,
      "chính_phủ</w>": 926,
      "ra_mắt</w>": 927,
      "thủ_tục</w>": 928,
      "giám_sát</w>": 929,
      "dự</w>": 930,
      "kiểu</w>": 931,
      "chợ</w>": 932,
      "dầu</w>": 933,
      "Tây</w>": 934,
      "xem_xét</w>": 935,
      "thoả_thuận</w>": 936,
      "hình_thức</w>": 937,
      "sẵn_sàng</w>": 938,
      "tình</w>": 939,
      "dạy</w>": 940,
      "Ấn_Độ</w>": 941,
      "mà_còn</w>": 942,
      "bắn</w>": 943,
      "cười</w>": 944,
      "có_mặt</w>": 945,
      "quán</w>": 946,
      "điều_chỉnh</w>": 947,
      "14</w>": 948,
      "ấn_tượng</w>": 949,
      "hành_chính</w>": 950,
      "rút</w>": 951,
      "kết_hợp</w>": 952,
      "ha</w>": 953,
      "xong</w>": 954,
      "thanh_niên</w>": 955,
      "đại_học</w>": 956,
      "lắm</w>": 957,
      "nguy_hiểm</w>": 958,
      "mạnh_mẽ</w>": 959,
      "giáo_viên</w>": 960,
      "lá</w>": 961,
      "Cùng</w>": 962,
      "kẻ</w>": 963,
      "13</w>": 964,
      "rời</w>": 965,
      "đề_xuất</w>": 966,
      "TTXVN</w>": 967,
      "C</w>": 968,
      "tấm</w>": 969,
      "Bạn</w>": 970,
      "chờ</w>": 971,
      "đơn_giản</w>": 972,
      "y_tế</w>": 973,
      "cần_thiết</w>": 974,
      "cánh</w>": 975,
      "dần</w>": 976,
      "cố_gắng</w>": 977,
      "40</w>": 978,
      "giấy</w>": 979,
      "mong_muốn</w>": 980,
      "xe_máy</w>": 981,
      "T": 982,
      "nổi</w>": 983,
      "sắp</w>": 984,
      "đau</w>": 985,
      "nghệ_sĩ</w>": 986,
      "đọc</w>": 987,
      "chở</w>": 988,
      "đen</w>": 989,
      "Trưởng</w>": 990,
      "vũ_khí</w>": 991,
      "D": 992,
      "cửa</w>": 993,
      "chắc_chắn</w>": 994,
      "chiến_lược</w>": 995,
      "phép</w>": 996,
      "đầy_đủ</w>": 997,
      "IS</w>": 998,
      "tình_cảm</w>": 999,
      "Thế</w>": 1000,
      "bị_cáo</w>": 1001,
      "môn</w>": 1002,
      "vô_địch</w>": 1003,
      "Ngoài</w>": 1004,
      "hồ</w>": 1005,
      "bình_thường</w>": 1006,
      "Trung</w>": 1007,
      "Chính</w>": 1008,
      "buộc</w>": 1009,
      "hướng_dẫn</w>": 1010,
      "nhập_khẩu</w>": 1011,
      "đại_biểu</w>": 1012,
      "Hoa_hậu</w>": 1013,
      "bảo_đảm</w>": 1014,
      "kết_thúc</w>": 1015,
      "thay</w>": 1016,
      "khoá</w>": 1017,
      "cấm</w>": 1018,
      "hề</w>": 1019,
      "phiên_bản</w>": 1020,
      "mắc</w>": 1021,
      "Mặc_dù</w>": 1022,
      "Vì</w>": 1023,
      "sạch</w>": 1024,
      "cổ_phiếu</w>": 1025,
      "xuất_sắc</w>": 1026,
      "trời</w>": 1027,
      "thể_thao</w>": 1028,
      "kém</w>": 1029,
      "lượt</w>": 1030,
      "siêu</w>": 1031,
      "tầng</w>": 1032,
      "CLB</w>": 1033,
      "2011</w>": 1034,
      "Nguyễn_": 1035,
      "mặc</w>": 1036,
      "Đoàn</w>": 1037,
      "lương</w>": 1038,
      "đợt</w>": 1039,
      "duy_trì</w>": 1040,
      "khối</w>": 1041,
      "L": 1042,
      "phương_án</w>": 1043,
      "căn</w>": 1044,
      "Báo</w>": 1045,
      "thương_hiệu</w>": 1046,
      "dễ_dàng</w>": 1047,
      "tác_phẩm</w>": 1048,
      "ma_tuý</w>": 1049,
      "nắm</w>": 1050,
      "Viện</w>": 1051,
      "ngân_sách</w>": 1052,
      "TPHCM</w>": 1053,
      "dựa</w>": 1054,
      "Sài_Gòn</w>": 1055,
      "2012</w>": 1056,
      "yếu_tố</w>": 1057,
      "25</w>": 1058,
      "Y_tế</w>": 1059,
      "đối_thủ</w>": 1060,
      "nhẹ</w>": 1061,
      "truyền_thông</w>": 1062,
      "tử_vong</w>": 1063,
      "Dự_án</w>": 1064,
      "iPhone</w>": 1065,
      "chấp_nhận</w>": 1066,
      "thu_nhập</w>": 1067,
      "khủng_bố</w>": 1068,
      "sai</w>": 1069,
      "C": 1070,
      "mô_hình</w>": 1071,
      "PV</w>": 1072,
      "phát</w>": 1073,
      "gà</w>": 1074,
      "hàng_hoá</w>": 1075,
      "Cụ_thể</w>": 1076,
      "ĐT</w>": 1077,
      "xấu</w>": 1078,
      "gắn</w>": 1079,
      "sợ</w>": 1080,
      "cơ_quan_chức_năng</w>": 1081,
      "theo_dõi</w>": 1082,
      "bầu</w>": 1083,
      "tuyển</w>": 1084,
      "T</w>": 1085,
      "N": 1086,
      "quà</w>": 1087,
      "cuốn</w>": 1088,
      "Bệnh_viện</w>": 1089,
      "minh_hoạ</w>": 1090,
      "mục_đích</w>": 1091,
      "danh_sách</w>": 1092,
      "hội</w>": 1093,
      "hạng</w>": 1094,
      "kiếm</w>": 1095,
      "VN</w>": 1096,
      "đóng_góp</w>": 1097,
      "cứu</w>": 1098,
      "súng</w>": 1099,
      "nhà_máy</w>": 1100,
      "đón</w>": 1101,
      "tờ</w>": 1102,
      "thôn</w>": 1103,
      "tiêu_dùng</w>": 1104,
      "2013</w>": 1105,
      "Mỗi</w>": 1106,
      "thực_vật</w>": 1107,
      "Chị</w>": 1108,
      "rau</w>": 1109,
      "nông_nghiệp</w>": 1110,
      "i</w>": 1111,
      "trao_đổi</w>": 1112,
      "hôm_nay</w>": 1113,
      "cạnh_tranh</w>": 1114,
      "sự_nghiệp</w>": 1115,
      "nhân_vật</w>": 1116,
      "V": 1117,
      "s</w>": 1118,
      "Phòng</w>": 1119,
      "17</w>": 1120,
      "ban_hành</w>": 1121,
      "pha</w>": 1122,
      "tác_động</w>": 1123,
      "tự_nhiên</w>": 1124,
      "H": 1125,
      "mô_tả</w>": 1126,
      "kết_nối</w>": 1127,
      "thúc_đẩy</w>": 1128,
      "Do</w>": 1129,
      "cựu</w>": 1130,
      "ngắn</w>": 1131,
      "thiệt_hại</w>": 1132,
      "phạt</w>": 1133,
      "video</w>": 1134,
      "bạn_bè</w>": 1135,
      "hấp_dẫn</w>": 1136,
      "lẫn</w>": 1137,
      "hàng_đầu</w>": 1138,
      "Sự</w>": 1139,
      "nộp</w>": 1140,
      "dư_luận</w>": 1141,
      "nàng</w>": 1142,
      "điện_tử</w>": 1143,
      "R": 1144,
      "cơn</w>": 1145,
      "Một_số</w>": 1146,
      "ban_đầu</w>": 1147,
      "cửa_hàng</w>": 1148,
      "phá</w>": 1149,
      "chế_độ</w>": 1150,
      "hâm_mộ</w>": 1151,
      "không_gian</w>": 1152,
      "bất_cứ</w>": 1153,
      "Cảnh_sát</w>": 1154,
      "duy_nhất</w>": 1155,
      "thua</w>": 1156,
      "bánh</w>": 1157,
      "năng_lực</w>": 1158,
      "thoát</w>": 1159,
      "thi_công</w>": 1160,
      "Đối_với</w>": 1161,
      "bãi</w>": 1162,
      "giả</w>": 1163,
      "tranh</w>": 1164,
      "màn_hình</w>": 1165,
      "gốc</w>": 1166,
      "Hội_nghị</w>": 1167,
      "Facebook</w>": 1168,
      "sữa</w>": 1169,
      "nhận_định</w>": 1170,
      "kèm</w>": 1171,
      "đẩy</w>": 1172,
      "24</w>": 1173,
      "thị_trấn</w>": 1174,
      "Ngân_hàng</w>": 1175,
      "thử</w>": 1176,
      "trạm</w>": 1177,
      "ung_thư</w>": 1178,
      "2009</w>": 1179,
      "song</w>": 1180,
      "sáng_tạo</w>": 1181,
      "thân</w>": 1182,
      "Tập_đoàn</w>": 1183,
      "rượu</w>": 1184,
      "chiến_đấu</w>": 1185,
      "P": 1186,
      "t": 1187,
      "biến</w>": 1188,
      "bão</w>": 1189,
      "thế_hệ</w>": 1190,
      "chủ_động</w>": 1191,
      "Ukraine</w>": 1192,
      "Vụ</w>": 1193,
      "biên_giới</w>": 1194,
      "19</w>": 1195,
      "chữ</w>": 1196,
      "lo</w>": 1197,
      "trước_đây</w>": 1198,
      "chi_tiết</w>": 1199,
      "khắc_phục</w>": 1200,
      "bố</w>": 1201,
      "việc_làm</w>": 1202,
      "Vào</w>": 1203,
      "t</w>": 1204,
      "lợi_ích</w>": 1205,
      "Thành</w>": 1206,
      "rõ_ràng</w>": 1207,
      "âm_nhạc</w>": 1208,
      "tình_yêu</w>": 1209,
      "lỗi</w>": 1210,
      "Khu</w>": 1211,
      "tiết_lộ</w>": 1212,
      "tiêu_chuẩn</w>": 1213,
      "vẻ</w>": 1214,
      "xung_quanh</w>": 1215,
      "phổ_biến</w>": 1216,
      "kịp_thời</w>": 1217,
      "bảo</w>": 1218,
      "Nhật</w>": 1219,
      "chậm</w>": 1220,
      "bom</w>": 1221,
      "chàng</w>": 1222,
      "cảnh_báo</w>": 1223,
      "chia</w>": 1224,
      "lối</w>": 1225,
      "m2</w>": 1226,
      "học_tập</w>": 1227,
      "liền</w>": 1228,
      "Apple</w>": 1229,
      "200</w>": 1230,
      "y</w>": 1231,
      "ngàn</w>": 1232,
      "quan_điểm</w>": 1233,
      "Thanh_Hoá</w>": 1234,
      "dấu_hiệu</w>": 1235,
      "d": 1236,
      "K": 1237,
      "cải_thiện</w>": 1238,
      "gấp</w>": 1239,
      "sự_việc</w>": 1240,
      "A": 1241,
      "ý_nghĩa</w>": 1242,
      "năng_lượng</w>": 1243,
      "Nó</w>": 1244,
      "căn_hộ</w>": 1245,
      "tóc</w>": 1246,
      "B</w>": 1247,
      "Đồng_thời</w>": 1248,
      "thầy</w>": 1249,
      "quy_mô</w>": 1250,
      "xây</w>": 1251,
      "luật</w>": 1252,
      "cam_kết</w>": 1253,
      "Lúc</w>": 1254,
      "ngôi_sao</w>": 1255,
      "bày_tỏ</w>": 1256,
      "cha</w>": 1257,
      "SN</w>": 1258,
      "phóng_viên</w>": 1259,
      "hy_vọng</w>": 1260,
      "Hội_đồng</w>": 1261,
      "đồng_ý</w>": 1262,
      "di_chuyển</w>": 1263,
      "cơ_bản</w>": 1264,
      "gỗ</w>": 1265,
      "Cách</w>": 1266,
      "nét</w>": 1267,
      "nổ</w>": 1268,
      "hạ</w>": 1269,
      "khắp</w>": 1270,
      "Xây_dựng</w>": 1271,
      "cổ_phần</w>": 1272,
      "gió</w>": 1273,
      "tiếp_cận</w>": 1274,
      "Vì_vậy</w>": 1275,
      "G": 1276,
      "ca_khúc</w>": 1277,
      "tái</w>": 1278,
      "thế_nào</w>": 1279,
      "toàn_cầu</w>": 1280,
      "sân_bay</w>": 1281,
      "sự_cố</w>": 1282,
      "diện</w>": 1283,
      "khai</w>": 1284,
      "tồn_tại</w>": 1285,
      "bị_thương</w>": 1286,
      "cầm</w>": 1287,
      "phong_cách</w>": 1288,
      "trải</w>": 1289,
      "thay_thế</w>": 1290,
      "tội</w>": 1291,
      "châu_Á</w>": 1292,
      "đe_doạ</w>": 1293,
      "đề</w>": 1294,
      "Nghệ_An</w>": 1295,
      "60</w>": 1296,
      "trung_bình</w>": 1297,
      "21</w>": 1298,
      "khách_sạn</w>": 1299,
      "kéo</w>": 1300,
      "n": 1301,
      "s": 1302,
      "điều_khiển</w>": 1303,
      "đội_tuyển</w>": 1304,
      "cảm_giác</w>": 1305,
      "hàng_loạt</w>": 1306,
      "phản_ánh</w>": 1307,
      "chung_kết</w>": 1308,
      "may_mắn</w>": 1309,
      "lạnh</w>": 1310,
      "thừa_nhận</w>": 1311,
      "tối_đa</w>": 1312,
      "Cơ_quan</w>": 1313,
      "xác_nhận</w>": 1314,
      "hưởng</w>": 1315,
      "Sáng</w>": 1316,
      "kỷ_niệm</w>": 1317,
      "Tài_chính</w>": 1318,
      "tương_tự</w>": 1319,
      "phát_biểu</w>": 1320,
      "lửa</w>": 1321,
      "Con</w>": 1322,
      "quên</w>": 1323,
      "gia_tăng</w>": 1324,
      "ngon</w>": 1325,
      "Qua</w>": 1326,
      "nông_thôn</w>": 1327,
      "thời_trang</w>": 1328,
      "hơi</w>": 1329,
      "vận_chuyển</w>": 1330,
      "Trump</w>": 1331,
      "vận_động</w>": 1332,
      "vườn</w>": 1333,
      "ghi_nhận</w>": 1334,
      "thống_nhất</w>": 1335,
      "ngừng</w>": 1336,
      "E": 1337,
      "bây_giờ</w>": 1338,
      "bữa</w>": 1339,
      "h": 1340,
      "đối_tác</w>": 1341,
      "truyền_hình</w>": 1342,
      "Hải_Phòng</w>": 1343,
      "tự_do</w>": 1344,
      "O": 1345,
      "Iran</w>": 1346,
      "ch": 1347,
      "hiện_trường</w>": 1348,
      "quảng_cáo</w>": 1349,
      "Em</w>": 1350,
      "Cả</w>": 1351,
      "dân_số</w>": 1352,
      "thông_minh</w>": 1353,
      "trú</w>": 1354,
      "THPT</w>": 1355,
      "con_số</w>": 1356,
      "kia</w>": 1357,
      "e": 1358,
      "Trần_": 1359,
      "tung</w>": 1360,
      "đổi</w>": 1361,
      "nhân</w>": 1362,
      "sân_khấu</w>": 1363,
      "tiết_kiệm</w>": 1364,
      "máy_tính</w>": 1365,
      "500</w>": 1366,
      "thu_hồi</w>": 1367,
      "hoàn_thiện</w>": 1368,
      "hạt_nhân</w>": 1369,
      "tìm_hiểu</w>": 1370,
      "ít_nhất</w>": 1371,
      "Internet</w>": 1372,
      "quanh</w>": 1373,
      "thuận_lợi</w>": 1374,
      "Thành_phố</w>": 1375,
      "căn_cứ</w>": 1376,
      "phát_hành</w>": 1377,
      "công_khai</w>": 1378,
      "nỗi</w>": 1379,
      "Thổ_Nhĩ_Kỳ</w>": 1380,
      "phân_tích</w>": 1381,
      "hè</w>": 1382,
      "Hàng</w>": 1383,
      "i": 1384,
      "bố_mẹ</w>": 1385,
      "công_nhân</w>": 1386,
      "m": 1387,
      "b": 1388,
      "phân</w>": 1389,
      "trang_phục</w>": 1390,
      "tổ</w>": 1391,
      "đảng</w>": 1392,
      "chú</w>": 1393,
      "giọng</w>": 1394,
      "c": 1395,
      "Malaysia</w>": 1396,
      "tuy_nhiên</w>": 1397,
      "như_thế_nào</w>": 1398,
      "hầu_hết</w>": 1399,
      "bang</w>": 1400,
      "sát</w>": 1401,
      "chặt</w>": 1402,
      "bất_kỳ</w>": 1403,
      "trị_giá</w>": 1404,
      "tỏ</w>": 1405,
      "loạt</w>": 1406,
      "sàn</w>": 1407,
      "tư_vấn</w>": 1408,
      "Huế</w>": 1409,
      "lạ</w>": 1410,
      "cưới</w>": 1411,
      "cơm</w>": 1412,
      "thủ_đô</w>": 1413,
      "vận_tải</w>": 1414,
      "hạt</w>": 1415,
      "23</w>": 1416,
      "thành_tích</w>": 1417,
      "lợi_nhuận</w>": 1418,
      "hết_sức</w>": 1419,
      "bậc</w>": 1420,
      "kênh</w>": 1421,
      "lệnh</w>": 1422,
      "Bí_thư</w>": 1423,
      "Chelsea</w>": 1424,
      "quỹ</w>": 1425,
      "Quốc_gia</w>": 1426,
      "khô</w>": 1427,
      "Hoa_Kỳ</w>": 1428,
      "clip</w>": 1429,
      "viên</w>": 1430,
      "phương_pháp</w>": 1431,
      "Sơn</w>": 1432,
      "tội_phạm</w>": 1433,
      "Thông_tin</w>": 1434,
      "ghế</w>": 1435,
      "giàu</w>": 1436,
      "Ba</w>": 1437,
      "hội_nghị</w>": 1438,
      "nửa</w>": 1439,
      "nạn</w>": 1440,
      "chiến_dịch</w>": 1441,
      "hành_khách</w>": 1442,
      "22</w>": 1443,
      "EU</w>": 1444,
      "bối_cảnh</w>": 1445,
      "đổi_mới</w>": 1446,
      "tiến</w>": 1447,
      "giúp_đỡ</w>": 1448,
      "màn</w>": 1449,
      "kêu_gọi</w>": 1450,
      "hút</w>": 1451,
      "bất_động_sản</w>": 1452,
      "đời_sống</w>": 1453,
      "lo_lắng</w>": 1454,
      "rẻ</w>": 1455,
      "hẳn</w>": 1456,
      "nông_dân</w>": 1457,
      "The_": 1458,
      "cơ_chế</w>": 1459,
      "giết</w>": 1460,
      "chính_xác</w>": 1461,
      "Singapore</w>": 1462,
      "Hải</w>": 1463,
      "bao</w>": 1464,
      "dạng</w>": 1465,
      "miêu_tả</w>": 1466,
      "đàm_phán</w>": 1467,
      "tương_đương</w>": 1468,
      "dám</w>": 1469,
      "dữ_liệu</w>": 1470,
      "nắng</w>": 1471,
      "lái</w>": 1472,
      "TS</w>": 1473,
      "Tổ_chức</w>": 1474,
      "Lê_": 1475,
      "bò</w>": 1476,
      "cân</w>": 1477,
      "kết_luận</w>": 1478,
      "Thanh</w>": 1479,
      "quan_chức</w>": 1480,
      "động_cơ</w>": 1481,
      "áp_lực</w>": 1482,
      "hơn_nữa</w>": 1483,
      "bắt_giữ</w>": 1484,
      "cao_cấp</w>": 1485,
      "cú</w>": 1486,
      "p": 1487,
      "như_thế</w>": 1488,
      "Chương_trình</w>": 1489,
      "vỡ</w>": 1490,
      "Không_chỉ</w>": 1491,
      "tuyên_truyền</w>": 1492,
      "k": 1493,
      "l": 1494,
      "Quản_lý</w>": 1495,
      "Tây_Ban_Nha</w>": 1496,
      "*</w>": 1497,
      "chế_biến</w>": 1498,
      "ASEAN</w>": 1499,
      "lũ</w>": 1500,
      "địa_điểm</w>": 1501,
      "Cuộc</w>": 1502,
      "thanh_toán</w>": 1503,
      "xu_hướng</w>": 1504,
      "TNHH</w>": 1505,
      "GTVT</w>": 1506,
      "Philippines</w>": 1507,
      "chắc</w>": 1508,
      "huy_động</w>": 1509,
      "an</w>": 1510,
      "cà_phê</w>": 1511,
      "tiếp_theo</w>": 1512,
      "Quốc_phòng</w>": 1513,
      "tiêu_thụ</w>": 1514,
      "thanh_tra</w>": 1515,
      "lãi_suất</w>": 1516,
      "a</w>": 1517,
      "kiến_nghị</w>": 1518,
      "thẻ</w>": 1519,
      "buồn</w>": 1520,
      "khóc</w>": 1521,
      "xét</w>": 1522,
      "tâm_lý</w>": 1523,
      "thất_bại</w>": 1524,
      "ngã</w>": 1525,
      "phát_huy</w>": 1526,
      "Hùng</w>": 1527,
      "Do_đó</w>": 1528,
      "g": 1529,
      "Tổng_cục</w>": 1530,
      "2008</w>": 1531,
      "đừng</w>": 1532,
      "chuyên_môn</w>": 1533,
      "Thời_gian</w>": 1534,
      "bắc</w>": 1535,
      "chiến_tranh</w>": 1536,
      "tác_dụng</w>": 1537,
      "giải_trí</w>": 1538,
      "Tuấn</w>": 1539,
      "vệ_sinh</w>": 1540,
      "Hiện_nay</w>": 1541,
      "chặt_chẽ</w>": 1542,
      "cảng</w>": 1543,
      "giỏi</w>": 1544,
      "Nghị_định</w>": 1545,
      "7": 1546,
      "trật_tự</w>": 1547,
      "sinh_hoạt</w>": 1548,
      "căng_thẳng</w>": 1549,
      "Indonesia</w>": 1550,
      "9": 1551,
      "Quyết_định</w>": 1552,
      "phản_ứng</w>": 1553,
      "nổi_bật</w>": 1554,
      "I</w>": 1555,
      "8": 1556,
      "tình_huống</w>": 1557,
      "bầu_cử</w>": 1558,
      "doanh_thu</w>": 1559,
      "chuyên</w>": 1560,
      "biểu_diễn</w>": 1561,
      "Như_vậy</w>": 1562,
      "liên_tiếp</w>": 1563,
      "chuyên_nghiệp</w>": 1564,
      "e</w>": 1565,
      "tổng_số</w>": 1566,
      "phức_tạp</w>": 1567,
      "chùa</w>": 1568,
      "bụng</w>": 1569,
      "300</w>": 1570,
      "không_khí</w>": 1571,
      "thử_nghiệm</w>": 1572,
      "giải_thưởng</w>": 1573,
      "chung_cư</w>": 1574,
      "sóng</w>": 1575,
      "Có_thể</w>": 1576,
      "vỏ</w>": 1577,
      "đạo_diễn</w>": 1578,
      "F": 1579,
      "chuẩn</w>": 1580,
      "y": 1581,
      "đấy</w>": 1582,
      "trông</w>": 1583,
      "Giá</w>": 1584,
      "World_Cup</w>": 1585,
      "bốn</w>": 1586,
      "tổng_hợp</w>": 1587,
      "trình_diễn</w>": 1588,
      "Là</w>": 1589,
      "chứng_kiến</w>": 1590,
      "cụ</w>": 1591,
      "có_lẽ</w>": 1592,
      "khoe</w>": 1593,
      "mới_đây</w>": 1594,
      "o</w>": 1595,
      "lợi</w>": 1596,
      "Hoa</w>": 1597,
      "phê_duyệt</w>": 1598,
      "thai</w>": 1599,
      "x": 1600,
      "Thứ_trưởng</w>": 1601,
      "mùi</w>": 1602,
      "Biển</w>": 1603,
      "bức_xúc</w>": 1604,
      "gương_mặt</w>": 1605,
      "lúa</w>": 1606,
      "phương</w>": 1607,
      "ngăn_chặn</w>": 1608,
      "đồng_chí</w>": 1609,
      "giải_thích</w>": 1610,
      "ngang</w>": 1611,
      "Minh</w>": 1612,
      "kiến_thức</w>": 1613,
      "tự_tin</w>": 1614,
      "Chiều</w>": 1615,
      "kịp</w>": 1616,
      "Như</w>": 1617,
      "bền_vững</w>": 1618,
      "tài_khoản</w>": 1619,
      "tù</w>": 1620,
      "khám</w>": 1621,
      "I": 1622,
      "chủ_tịch</w>": 1623,
      "mã</w>": 1624,
      "6": 1625,
      "dịch</w>": 1626,
      "hành_trình</w>": 1627,
      "phẫu_thuật</w>": 1628,
      "cấp_cứu</w>": 1629,
      "nhắc</w>": 1630,
      "Hiện_tại</w>": 1631,
      "lái_xe</w>": 1632,
      "lễ_hội</w>": 1633,
      "cực</w>": 1634,
      "phụ_huynh</w>": 1635,
      "Google</w>": 1636,
      "nhập</w>": 1637,
      "góc</w>": 1638,
      "Hà_Tĩnh</w>": 1639,
      "hợp_lý</w>": 1640,
      "Tháng</w>": 1641,
      "tốt_nghiệp</w>": 1642,
      "từ_chối</w>": 1643,
      "rác</w>": 1644,
      "nghĩa</w>": 1645,
      "X": 1646,
      "điều_hành</w>": 1647,
      "đăng_tải</w>": 1648,
      "Nguyễn_Văn_": 1649,
      "Đội</w>": 1650,
      "bộ_phận</w>": 1651,
      "đòi</w>": 1652,
      "mức_độ</w>": 1653,
      "hậu_quả</w>": 1654,
      "tài_năng</w>": 1655,
      "u</w>": 1656,
      "Kết_quả</w>": 1657,
      "chó</w>": 1658,
      "v": 1659,
      "khí</w>": 1660,
      "chữa</w>": 1661,
      "chủ_trương</w>": 1662,
      "70</w>": 1663,
      "h</w>": 1664,
      "tiếp_nhận</w>": 1665,
      "xếp</w>": 1666,
      "trái_phép</w>": 1667,
      "cha_mẹ</w>": 1668,
      "năm_ngoái</w>": 1669,
      "vận_hành</w>": 1670,
      "trụ_sở</w>": 1671,
      "o": 1672,
      "đua</w>": 1673,
      "danh_hiệu</w>": 1674,
      "cướp</w>": 1675,
      "đạn</w>": 1676,
      "n</w>": 1677,
      "Vietnam</w>": 1678,
      "cuộc_đời</w>": 1679,
      "nâng_cấp</w>": 1680,
      "bố_trí</w>": 1681,
      "Đầu_tư</w>": 1682,
      "Hãy</w>": 1683,
      "a_": 1684,
      "gói</w>": 1685,
      "Arsenal</w>": 1686,
      "già</w>": 1687,
      "nhà_trường</w>": 1688,
      "ưu_tiên</w>": 1689,
      "đèn</w>": 1690,
      "lên_tiếng</w>": 1691,
      "vua</w>": 1692,
      "cảm_xúc</w>": 1693,
      "gạo</w>": 1694,
      "mặc_dù</w>": 1695,
      "Hà</w>": 1696,
      "Thậm_chí</w>": 1697,
      "r": 1698,
      "vì_vậy</w>": 1699,
      "thảo_luận</w>": 1700,
      "ng": 1701,
      "suy_nghĩ</w>": 1702,
      "1.000</w>": 1703,
      "đẩy_mạnh</w>": 1704,
      "Reuters</w>": 1705,
      "Nhà</w>": 1706,
      "tác_giả</w>": 1707,
      "người_thân</w>": 1708,
      "Thái</w>": 1709,
      "xứ</w>": 1710,
      "Bởi</w>": 1711,
      "hiện_tượng</w>": 1712,
      "tư</w>": 1713,
      "tim</w>": 1714,
      "tài_liệu</w>": 1715,
      "hoà_bình</w>": 1716,
      "đào</w>": 1717,
      "e_": 1718,
      "tài_xế</w>": 1719,
      "Chiếc</w>": 1720,
      "Lào</w>": 1721,
      "trứng</w>": 1722,
      "đối_mặt</w>": 1723,
      "game</w>": 1724,
      "GD</w>": 1725,
      "tập_đoàn</w>": 1726,
      "bà_con</w>": 1727,
      "xinh_đẹp</w>": 1728,
      "hình_thành</w>": 1729,
      "phần_mềm</w>": 1730,
      "băng</w>": 1731,
      "sức_mạnh</w>": 1732,
      "lợn</w>": 1733,
      "thư</w>": 1734,
      "Ch": 1735,
      "đập</w>": 1736,
      "Hồ</w>": 1737,
      "hoá</w>": 1738,
      "diễn_biến</w>": 1739,
      "thưởng</w>": 1740,
      "chủ_đề</w>": 1741,
      "26</w>": 1742,
      "viêm</w>": 1743,
      "Nghị_quyết</w>": 1744,
      "28</w>": 1745,
      "phụ</w>": 1746,
      "dây</w>": 1747,
      "thú_vị</w>": 1748,
      "ar": 1749,
      "lao</w>": 1750,
      "_": 1751,
      "Giáo_dục</w>": 1752,
      "tình_dục</w>": 1753,
      "thị_xã</w>": 1754,
      "Israel</w>": 1755,
      "trải_nghiệm</w>": 1756,
      "Linh</w>": 1757,
      "kinh_phí</w>": 1758,
      "Nguyên</w>": 1759,
      "Mới_đây</w>": 1760,
      "đáng_kể</w>": 1761,
      "tín_dụng</w>": 1762,
      "giám_đốc</w>": 1763,
      "dậy</w>": 1764,
      "5": 1765,
      "chức</w>": 1766,
      "cát</w>": 1767,
      "Cần_Thơ</w>": 1768,
      "27</w>": 1769,
      "CP</w>": 1770,
      "rửa</w>": 1771,
      "sẵn</w>": 1772,
      "phản_đối</w>": 1773,
      "tính_năng</w>": 1774,
      "đám</w>": 1775,
      "lộ</w>": 1776,
      "chấn_thương</w>": 1777,
      "miệng</w>": 1778,
      "Hồi_giáo</w>": 1779,
      "mặt_hàng</w>": 1780,
      "H</w>": 1781,
      "Đ": 1782,
      "yếu</w>": 1783,
      "ô_nhiễm</w>": 1784,
      "Vinh</w>": 1785,
      "thế_kỷ</w>": 1786,
      "đâm</w>": 1787,
      "hoàn_cảnh</w>": 1788,
      "lo_ngại</w>": 1789,
      "mong</w>": 1790,
      "z": 1791,
      "tham_nhũng</w>": 1792,
      "nhà_khoa_học</w>": 1793,
      "tiền_đạo</w>": 1794,
      "khảo_sát</w>": 1795,
      "thẳng</w>": 1796,
      "thời_tiết</w>": 1797,
      "thay_vì</w>": 1798,
      "thống_kê</w>": 1799,
      "may</w>": 1800,
      "nghi</w>": 1801,
      "quyết_tâm</w>": 1802,
      "công_nhận</w>": 1803,
      "Văn_phòng</w>": 1804,
      "độc_đáo</w>": 1805,
      "phong_trào</w>": 1806,
      "Vậy</w>": 1807,
      "Phát_triển</w>": 1808,
      "vì_thế</w>": 1809,
      "thách_thức</w>": 1810,
      "tập_thể</w>": 1811,
      "ga</w>": 1812,
      "đăng</w>": 1813,
      "tiến_độ</w>": 1814,
      "dự_báo</w>": 1815,
      "Kim</w>": 1816,
      "dân_cư</w>": 1817,
      "fan</w>": 1818,
      "tuyệt_vời</w>": 1819,
      "cung</w>": 1820,
      "ngoại</w>": 1821,
      "hoà</w>": 1822,
      "bao_nhiêu</w>": 1823,
      "đàn</w>": 1824,
      "2020</w>": 1825,
      "Hoàng_": 1826,
      "Th": 1827,
      "túi</w>": 1828,
      "văn_phòng</w>": 1829,
      "35</w>": 1830,
      "Quảng_Nam</w>": 1831,
      "Bình</w>": 1832,
      "bình_luận</w>": 1833,
      "tươi</w>": 1834,
      "Thứ</w>": 1835,
      "dường_như</w>": 1836,
      "thiệt_mạng</w>": 1837,
      "cư_dân</w>": 1838,
      "Ngoại_giao</w>": 1839,
      "chứng_minh</w>": 1840,
      "29</w>": 1841,
      "Song</w>": 1842,
      "U23</w>": 1843,
      "quy_trình</w>": 1844,
      "người_mẫu</w>": 1845,
      "thẩm_quyền</w>": 1846,
      "ý_tưởng</w>": 1847,
      "Nguyễn_Thị_": 1848,
      "thức_ăn</w>": 1849,
      "a": 1850,
      "rà_soát</w>": 1851,
      "Cho</w>": 1852,
      "45</w>": 1853,
      "4": 1854,
      "tận</w>": 1855,
      "bồi_thường</w>": 1856,
      "kỹ_năng</w>": 1857,
      "Phương</w>": 1858,
      "…</w>": 1859,
      "Dũng</w>": 1860,
      "Iraq</w>": 1861,
      "mua_bán</w>": 1862,
      "trúng</w>": 1863,
      "làn</w>": 1864,
      "lưới</w>": 1865,
      "f": 1866,
      "ngập</w>": 1867,
      "xử_phạt</w>": 1868,
      "lãnh_thổ</w>": 1869,
      "khổng_lồ</w>": 1870,
      "Long</w>": 1871,
      "nấu</w>": 1872,
      "xăng</w>": 1873,
      "Samsung</w>": 1874,
      "đỗ</w>": 1875,
      "lưng</w>": 1876,
      "an": 1877,
      "U": 1878,
      "nhà_sản_xuất</w>": 1879,
      "sửa_đổi</w>": 1880,
      "u": 1881,
      "đội_ngũ</w>": 1882,
      "en": 1883,
      "Đồng_Nai</w>": 1884,
      "trốn</w>": 1885,
      "muối</w>": 1886,
      "bột</w>": 1887,
      "kỷ_lục</w>": 1888,
      "vật</w>": 1889,
      "Văn_hoá</w>": 1890,
      "di_động</w>": 1891,
      "Hồng</w>": 1892,
      "trình</w>": 1893,
      "c</w>": 1894,
      "quen</w>": 1895,
      "ôm</w>": 1896,
      "tường</w>": 1897,
      "mũi</w>": 1898,
      "Tất_cả</w>": 1899,
      "thép</w>": 1900,
      "camera</w>": 1901,
      "Cty</w>": 1902,
      "Du_lịch</w>": 1903,
      "cổng</w>": 1904,
      "tiền_vệ</w>": 1905,
      "truyền</w>": 1906,
      "Số</w>": 1907,
      "Thủ_đô</w>": 1908,
      "một_vài</w>": 1909,
      "kho</w>": 1910,
      "nguồn_gốc</w>": 1911,
      "độc_lập</w>": 1912,
      "of</w>": 1913,
      "chiếu</w>": 1914,
      "công_suất</w>": 1915,
      "Brazil</w>": 1916,
      "80</w>": 1917,
      "toàn_quốc</w>": 1918,
      "mảnh</w>": 1919,
      "Bắc_Kinh</w>": 1920,
      "màu_sắc</w>": 1921,
      "anh_em</w>": 1922,
      "miễn_phí</w>": 1923,
      "thơ</w>": 1924,
      "công_dân</w>": 1925,
      "er": 1926,
      "D</w>": 1927,
      "rủi_ro</w>": 1928,
      "Campuchia</w>": 1929,
      "hạ_tầng</w>": 1930,
      "al": 1931,
      "giải_phóng</w>": 1932,
      "đốt</w>": 1933,
      "liệu</w>": 1934,
      "đồng_hồ</w>": 1935,
      "chứng_nhận</w>": 1936,
      "thoải_mái</w>": 1937,
      "mm</w>": 1938,
      "2007</w>": 1939,
      "người_yêu</w>": 1940,
      "tài</w>": 1941,
      "mặt_bằng</w>": 1942,
      "chia_tay</w>": 1943,
      "Quảng_Ninh</w>": 1944,
      "nhảy</w>": 1945,
      "ven</w>": 1946,
      "k</w>": 1947,
      "phóng</w>": 1948,
      "in": 1949,
      "Nói</w>": 1950,
      "toàn_diện</w>": 1951,
      "Bình_Dương</w>": 1952,
      "nhà_hàng</w>": 1953,
      "liên_kết</w>": 1954,
      "Hoàng</w>": 1955,
      "M</w>": 1956,
      "90</w>": 1957,
      "quốc_phòng</w>": 1958,
      "phần_lớn</w>": 1959,
      "khác_biệt</w>": 1960,
      "hại</w>": 1961,
      "Dương</w>": 1962,
      "tiếp_xúc</w>": 1963,
      "độc</w>": 1964,
      "sinh_sống</w>": 1965,
      "II</w>": 1966,
      "Riêng</w>": 1967,
      "chỉ_tiêu</w>": 1968,
      "Giao_thông</w>": 1969,
      "chị_em</w>": 1970,
      "sút</w>": 1971,
      "trực_tuyến</w>": 1972,
      "chuỗi</w>": 1973,
      "đường_sắt</w>": 1974,
      "hình_sự</w>": 1975,
      "Hương</w>": 1976,
      "W": 1977,
      "xếp_hạng</w>": 1978,
      "H.</w>": 1979,
      "ngoại_giao</w>": 1980,
      "th": 1981,
      "Giải</w>": 1982,
      "chuyển_nhượng</w>": 1983,
      "quần_áo</w>": 1984,
      "học_trò</w>": 1985,
      "xương</w>": 1986,
      "xét_xử</w>": 1987,
      "chín</w>": 1988,
      "não</w>": 1989,
      "trình_độ</w>": 1990,
      "sửa_chữa</w>": 1991,
      "tâm_sự</w>": 1992,
      "de</w>": 1993,
      "đòi_hỏi</w>": 1994,
      "ấm</w>": 1995,
      "tuỳ</w>": 1996,
      "mãi</w>": 1997,
      "kỷ_luật</w>": 1998,
      "Vì_thế</w>": 1999,
      "dinh_dưỡng</w>": 2000,
      "cập_nhật</w>": 2001,
      "nhiễm</w>": 2002,
      "Đã</w>": 2003,
      "nguyên_liệu</w>": 2004,
      "0</w>": 2005,
      "ma</w>": 2006,
      "đồng_đội</w>": 2007,
      "nh": 2008,
      "lúc_nào</w>": 2009,
      "dọc</w>": 2010,
      "tin_tưởng</w>": 2011,
      "tiềm_năng</w>": 2012,
      "chút</w>": 2013,
      "ném</w>": 2014,
      "smartphone</w>": 2015,
      "Phạm_": 2016,
      "nhận_thức</w>": 2017,
      "trưa</w>": 2018,
      "huấn_luyện</w>": 2019,
      "di_tích</w>": 2020,
      "Australia</w>": 2021,
      "Hiệp_hội</w>": 2022,
      "thơm</w>": 2023,
      "công_chúng</w>": 2024,
      "hồng</w>": 2025,
      "bổ_nhiệm</w>": 2026,
      "chỉ_trích</w>": 2027,
      "chỉ_số</w>": 2028,
      "lo": 2029,
      "es</w>": 2030,
      "Donald_Trump</w>": 2031,
      "Mẹ</w>": 2032,
      "tai</w>": 2033,
      "uy_tín</w>": 2034,
      "xả</w>": 2035,
      "M.U</w>": 2036,
      "dao</w>": 2037,
      "32</w>": 2038,
      "quan_sát</w>": 2039,
      "MC</w>": 2040,
      "nhiệt_độ</w>": 2041,
      "Hoà</w>": 2042,
      "Phát_biểu</w>": 2043,
      "động_vật</w>": 2044,
      "cơ_cấu</w>": 2045,
      "cáo_buộc</w>": 2046,
      "Quân_đội</w>": 2047,
      "tham_quan</w>": 2048,
      "on</w>": 2049,
      "đam_mê</w>": 2050,
      "treo</w>": 2051,
      "en</w>": 2052,
      "S</w>": 2053,
      "khoa</w>": 2054,
      "thời_kỳ</w>": 2055,
      "thời_hạn</w>": 2056,
      "thương</w>": 2057,
      "kín</w>": 2058,
      "khung</w>": 2059,
      "bớt</w>": 2060,
      "cuộc_chiến</w>": 2061,
      "Tr": 2062,
      "mua_sắm</w>": 2063,
      "Nữ</w>": 2064,
      "địa_chỉ</w>": 2065,
      "Chưa</w>": 2066,
      "ánh</w>": 2067,
      "phi</w>": 2068,
      "nhiệm_kỳ</w>": 2069,
      "bí_mật</w>": 2070,
      "nói_chuyện</w>": 2071,
      "hàng_không</w>": 2072,
      "Tính</w>": 2073,
      "tự_động</w>": 2074,
      "ruột</w>": 2075,
      "Lực_lượng</w>": 2076,
      "tranh_chấp</w>": 2077,
      "khuyến_khích</w>": 2078,
      "lô</w>": 2079,
      "Đường</w>": 2080,
      "ti": 2081,
      "sắt</w>": 2082,
      "nhé</w>": 2083,
      "váy</w>": 2084,
      "sau_này</w>": 2085,
      "ăn_uống</w>": 2086,
      "mái</w>": 2087,
      "cách_mạng</w>": 2088,
      "pháp_lý</w>": 2089,
      "o_": 2090,
      "khủng_hoảng</w>": 2091,
      "liên_lạc</w>": 2092,
      "thành_phần</w>": 2093,
      "x</w>": 2094,
      "t_": 2095,
      "ngụ</w>": 2096,
      "kính</w>": 2097,
      "tôm</w>": 2098,
      "tiêu_chí</w>": 2099,
      "Cường</w>": 2100,
      "Kinh_tế</w>": 2101,
      "lưu_ý</w>": 2102,
      "cải_cách</w>": 2103,
      "sắc</w>": 2104,
      "cố</w>": 2105,
      "thanh</w>": 2106,
      "kết_hôn</w>": 2107,
      "bia</w>": 2108,
      "kỳ_vọng</w>": 2109,
      "bàn_giao</w>": 2110,
      "sốc</w>": 2111,
      "ngực</w>": 2112,
      "định_hướng</w>": 2113,
      "bếp</w>": 2114,
      "Mọi</w>": 2115,
      "thi_hành</w>": 2116,
      "miếng</w>": 2117,
      "ra_đời</w>": 2118,
      "Y": 2119,
      "Gần</w>": 2120,
      "xuyên</w>": 2121,
      "sốt</w>": 2122,
      "Thắng</w>": 2123,
      "Uỷ_viên</w>": 2124,
      "khúc</w>": 2125,
      "chim</w>": 2126,
      "tr": 2127,
      "VFF</w>": 2128,
      "tổng_thống</w>": 2129,
      "phỏng_vấn</w>": 2130,
      "Nhóm</w>": 2131,
      "BHXH</w>": 2132,
      "chấm_dứt</w>": 2133,
      "Canada</w>": 2134,
      "tắt</w>": 2135,
      "J": 2136,
      "phòng_chống</w>": 2137,
      "100%</w>": 2138,
      "er</w>": 2139,
      "tiêu</w>": 2140,
      "thật_sự</w>": 2141,
      "viện</w>": 2142,
      "tố_cáo</w>": 2143,
      "Hải_quân</w>": 2144,
      "nhận_xét</w>": 2145,
      "đoạt</w>": 2146,
      "3": 2147,
      "chuyển_đổi</w>": 2148,
      "phủ</w>": 2149,
      "ép</w>": 2150,
      "nội</w>": 2151,
      "nhất_định</w>": 2152,
      "sở</w>": 2153,
      "Washington</w>": 2154,
      "Ronaldo</w>": 2155,
      "ảo</w>": 2156,
      "vẽ</w>": 2157,
      "d</w>": 2158,
      "yêu_thương</w>": 2159,
      "Hình_ảnh</w>": 2160,
      "gan</w>": 2161,
      "ph": 2162,
      "luật_sư</w>": 2163,
      "vui_vẻ</w>": 2164,
      "xe_tải</w>": 2165,
      "trường_học</w>": 2166,
      "kiến_trúc</w>": 2167,
      "vết</w>": 2168,
      "nói_chung</w>": 2169,
      "nền_tảng</w>": 2170,
      "Tâm</w>": 2171,
      "nhà_lãnh_đạo</w>": 2172,
      "sai_phạm</w>": 2173,
      "Môi_trường</w>": 2174,
      "khuyên</w>": 2175,
      "Rất</w>": 2176,
      "thả</w>": 2177,
      "thông</w>": 2178,
      "pin</w>": 2179,
      "P</w>": 2180,
      "chảy</w>": 2181,
      "Cộng_hoà</w>": 2182,
      "thủ</w>": 2183,
      "xuân</w>": 2184,
      "phó</w>": 2185,
      "10": 2186,
      "đồng_nghiệp</w>": 2187,
      "vào_khoảng</w>": 2188,
      "mơ</w>": 2189,
      "Đại_hội</w>": 2190,
      "Người_dân</w>": 2191,
      "nguyên_tắc</w>": 2192,
      "i_": 2193,
      "thở</w>": 2194,
      "giao_lưu</w>": 2195,
      "triển_lãm</w>": 2196,
      "Hơn</w>": 2197,
      "ý</w>": 2198,
      "kỹ</w>": 2199,
      "đi_lại</w>": 2200,
      "ngược</w>": 2201,
      "CSGT</w>": 2202,
      "nối</w>": 2203,
      "2006</w>": 2204,
      "công_chức</w>": 2205,
      "khởi_tố</w>": 2206,
      "trọng_tài</w>": 2207,
      "hầm</w>": 2208,
      "cơ</w>": 2209,
      "phiếu</w>": 2210,
      "ôtô</w>": 2211,
      "trừng_phạt</w>": 2212,
      "Kế_hoạch</w>": 2213,
      "Gia_đình</w>": 2214,
      "Bài</w>": 2215,
      "thùng</w>": 2216,
      "đậm</w>": 2217,
      "hiệu_lực</w>": 2218,
      "Thế_giới</w>": 2219,
      "Lễ</w>": 2220,
      "hôn_nhân</w>": 2221,
      "hiếm</w>": 2222,
      "thói_quen</w>": 2223,
      "động_viên</w>": 2224,
      "to": 2225,
      "âm</w>": 2226,
      "lưu_thông</w>": 2227,
      "l</w>": 2228,
      "công_cộng</w>": 2229,
      "thế_này</w>": 2230,
      "mét</w>": 2231,
      "Công_Thương</w>": 2232,
      "Nam_": 2233,
      "An</w>": 2234,
      "Quốc_tế</w>": 2235,
      "400</w>": 2236,
      "dẫn_đầu</w>": 2237,
      "ký_kết</w>": 2238,
      "đắt</w>": 2239,
      "lãi</w>": 2240,
      "tính_toán</w>": 2241,
      "giấy_phép</w>": 2242,
      "họp_báo</w>": 2243,
      "pháo</w>": 2244,
      "nhà_thầu</w>": 2245,
      "đỉnh</w>": 2246,
      "tiếc</w>": 2247,
      "tự_hào</w>": 2248,
      "vật_liệu</w>": 2249,
      "lâu_dài</w>": 2250,
      "T.</w>": 2251,
      "vào_cuộc</w>": 2252,
      "nhắn</w>": 2253,
      "AFP</w>": 2254,
      "C.</w>": 2255,
      "Đài_Loan</w>": 2256,
      "nghiêm_túc</w>": 2257,
      "dự_thảo</w>": 2258,
      "tiêu_cực</w>": 2259,
      "K</w>": 2260,
      "Chúng_ta</w>": 2261,
      "nút</w>": 2262,
      "hương</w>": 2263,
      "Hà_Lan</w>": 2264,
      "Ngọc</w>": 2265,
      "tắm</w>": 2266,
      "đại_gia</w>": 2267,
      "Hệ_thống</w>": 2268,
      "Khoảng</w>": 2269,
      "mây</w>": 2270,
      "trộm</w>": 2271,
      "trà</w>": 2272,
      "hài_lòng</w>": 2273,
      "tải</w>": 2274,
      "hộp</w>": 2275,
      "Quang</w>": 2276,
      "Real_Madrid</w>": 2277,
      "lợi_thế</w>": 2278,
      "đền</w>": 2279,
      "vùng_biển</w>": 2280,
      "chờ_đợi</w>": 2281,
      "ia</w>": 2282,
      "phạm</w>": 2283,
      "góp</w>": 2284,
      "N</w>": 2285,
      "Thanh_tra</w>": 2286,
      "Văn_": 2287,
      "hợp</w>": 2288,
      "dựng</w>": 2289,
      "thuyết_phục</w>": 2290,
      "Kim_": 2291,
      "the</w>": 2292,
      "tỷ_số</w>": 2293,
      "lọt</w>": 2294,
      "chỉ_huy</w>": 2295,
      "tốt_đẹp</w>": 2296,
      "thiên_nhiên</w>": 2297,
      "L</w>": 2298,
      "khí_hậu</w>": 2299,
      "điện_ảnh</w>": 2300,
      "hệ</w>": 2301,
      "g</w>": 2302,
      "w": 2303,
      "một_chút</w>": 2304,
      "Z": 2305,
      "đám_cưới</w>": 2306,
      "thiết_lập</w>": 2307,
      "ống</w>": 2308,
      "quyết_liệt</w>": 2309,
      "36</w>": 2310,
      "nhựa</w>": 2311,
      "đấu_tranh</w>": 2312,
      "liên_hệ</w>": 2313,
      "vật_chất</w>": 2314,
      "chế_tạo</w>": 2315,
      "Đồng</w>": 2316,
      "khen</w>": 2317,
      "Barca</w>": 2318,
      "Tùng</w>": 2319,
      "X</w>": 2320,
      "cảm_ơn</w>": 2321,
      "phạm_vi</w>": 2322,
      "chủ_trì</w>": 2323,
      "ngọt</w>": 2324,
      "biểu_hiện</w>": 2325,
      "2": 2326,
      "Vũ_": 2327,
      "HĐND</w>": 2328,
      "đa_dạng</w>": 2329,
      "31</w>": 2330,
      "Tuy</w>": 2331,
      "ngư_dân</w>": 2332,
      "_S": 2333,
      "Xuân</w>": 2334,
      "lít</w>": 2335,
      "News</w>": 2336,
      "Tiến</w>": 2337,
      "Vũ</w>": 2338,
      "E</w>": 2339,
      "bật</w>": 2340,
      "giấu</w>": 2341,
      "ý_thức</w>": 2342,
      "kể_cả</w>": 2343,
      "bám</w>": 2344,
      "Champions_League</w>": 2345,
      "nhân_lực</w>": 2346,
      "tập_luyện</w>": 2347,
      "Liverpool</w>": 2348,
      "có_vẻ</w>": 2349,
      "bình_quân</w>": 2350,
      "giây</w>": 2351,
      "Phong</w>": 2352,
      "thông_thường</w>": 2353,
      "Điểm</w>": 2354,
      "Man_City</w>": 2355,
      "is": 2356,
      "Real</w>": 2357,
      "1,": 2358,
      "đội_hình</w>": 2359,
      "sự_thật</w>": 2360,
      "hoàn_tất</w>": 2361,
      "NATO</w>": 2362,
      "cử_tri</w>": 2363,
      "cột</w>": 2364,
      "Châu</w>": 2365,
      "trưởng_thành</w>": 2366,
      "taxi</w>": 2367,
      "trống</w>": 2368,
      "Úc</w>": 2369,
      "cử</w>": 2370,
      "phụ_thuộc</w>": 2371,
      "50%</w>": 2372,
      "chiến_sĩ</w>": 2373,
      "thuyền</w>": 2374,
      "ngọn</w>": 2375,
      "tàu_ngầm</w>": 2376,
      "Al": 2377,
      "Hưng</w>": 2378,
      "kiện</w>": 2379,
      "p</w>": 2380,
      "ngắm</w>": 2381,
      "TAND</w>": 2382,
      "giấy_tờ</w>": 2383,
      "xuất_phát</w>": 2384,
      "Lần</w>": 2385,
      "khâu</w>": 2386,
      "or": 2387,
      "can_thiệp</w>": 2388,
      "xưa</w>": 2389,
      "ưu_đãi</w>": 2390,
      "vất_vả</w>": 2391,
      "Thực_tế</w>": 2392,
      "tại_sao</w>": 2393,
      "bảo_hiểm</w>": 2394,
      "nhà_báo</w>": 2395,
      "nước_mắt</w>": 2396,
      "Nhờ</w>": 2397,
      "trôi</w>": 2398,
      "khối_lượng</w>": 2399,
      "mát</w>": 2400,
      "xác_minh</w>": 2401,
      "hôm_qua</w>": 2402,
      "mâu_thuẫn</w>": 2403,
      "bình</w>": 2404,
      "cộng</w>": 2405,
      "Y</w>": 2406,
      "làm_sao</w>": 2407,
      "ý_định</w>": 2408,
      "nghi_ngờ</w>": 2409,
      "nhẹ_nhàng</w>": 2410,
      "Hãng</w>": 2411,
      "suất</w>": 2412,
      "Công_nghệ</w>": 2413,
      "xin_lỗi</w>": 2414,
      "trừ</w>": 2415,
      "hằng</w>": 2416,
      "mệt_mỏi</w>": 2417,
      "tiệc</w>": 2418,
      "định_cư</w>": 2419,
      "bến</w>": 2420,
      "show</w>": 2421,
      "đồng_bào</w>": 2422,
      "as": 2423,
      "đánh_bại</w>": 2424,
      "đạo_đức</w>": 2425,
      "tạp_chí</w>": 2426,
      "nhạc_sĩ</w>": 2427,
      "ri": 2428,
      "răng</w>": 2429,
      "Đại_diện</w>": 2430,
      "khai_mạc</w>": 2431,
      "tết</w>": 2432,
      "phụ_trách</w>": 2433,
      "1.": 2434,
      "ánh_sáng</w>": 2435,
      "Obama</w>": 2436,
      "vitamin</w>": 2437,
      "es": 2438,
      "tổn_thương</w>": 2439,
      "dính</w>": 2440,
      "tranh_cãi</w>": 2441,
      "tuy</w>": 2442,
      "MV</w>": 2443,
      "khoảng_cách</w>": 2444,
      "BV</w>": 2445,
      "Dân</w>": 2446,
      "bảo_tồn</w>": 2447,
      "thuỷ_sản</w>": 2448,
      "sắp_xếp</w>": 2449,
      "Thành_uỷ</w>": 2450,
      "giảm_giá</w>": 2451,
      "gặp_gỡ</w>": 2452,
      "giám_khảo</w>": 2453,
      "Mai</w>": 2454,
      "li": 2455,
      "2000</w>": 2456,
      "Xem</w>": 2457,
      "quyền_lợi</w>": 2458,
      "dâu</w>": 2459,
      "Chúng</w>": 2460,
      "năm_học</w>": 2461,
      "Hà_": 2462,
      "xung_đột</w>": 2463,
      "biểu_tình</w>": 2464,
      "y_": 2465,
      "giày</w>": 2466,
      "Đáng</w>": 2467,
      "tuyển_sinh</w>": 2468,
      "hưu</w>": 2469,
      "Bước</w>": 2470,
      "lính</w>": 2471,
      "phiên_toà</w>": 2472,
      "bướm</w>": 2473,
      "Ph": 2474,
      "chấm</w>": 2475,
      "chứng_khoán</w>": 2476,
      "đạo</w>": 2477,
      "vỉa_hè</w>": 2478,
      "co": 2479,
      "Hoà_Bình</w>": 2480,
      "kích_thước</w>": 2481,
      "lan</w>": 2482,
      "thưởng_thức</w>": 2483,
      "cải_tạo</w>": 2484,
      "hoàn_hảo</w>": 2485,
      "top</w>": 2486,
      "tức</w>": 2487,
      "tách</w>": 2488,
      "thái_độ</w>": 2489,
      "Trang</w>": 2490,
      "mốc</w>": 2491,
      "ly</w>": 2492,
      "đường_bộ</w>": 2493,
      "gắn_bó</w>": 2494,
      "chủ_quyền</w>": 2495,
      "Dương_": 2496,
      "than</w>": 2497,
      "khẩn_cấp</w>": 2498,
      "đóng_cửa</w>": 2499,
      "al</w>": 2500,
      "tận_dụng</w>": 2501,
      "chặn</w>": 2502,
      "ghi_bàn</w>": 2503,
      "lần_lượt</w>": 2504,
      "bất_thường</w>": 2505,
      "hiệp</w>": 2506,
      "Lan</w>": 2507,
      "dày</w>": 2508,
      "đáp</w>": 2509,
      "Cái</w>": 2510,
      "ngược_lại</w>": 2511,
      "số_liệu</w>": 2512,
      "khám_phá</w>": 2513,
      "VTC</w>": 2514,
      "nhiệt</w>": 2515,
      "Paris</w>": 2516,
      "đối_phương</w>": 2517,
      "tôn_trọng</w>": 2518,
      "CĐ</w>": 2519,
      "tế_bào</w>": 2520,
      "Lâm</w>": 2521,
      "Chuyện</w>": 2522,
      "động_lực</w>": 2523,
      "quảng_bá</w>": 2524,
      "Ngoại_trưởng</w>": 2525,
      "Thông_tư</w>": 2526,
      "2005</w>": 2527,
      "xuất</w>": 2528,
      "đa</w>": 2529,
      "công_cụ</w>": 2530,
      "Khánh_Hoà</w>": 2531,
      "Trao_đổi</w>": 2532,
      "tròn</w>": 2533,
      "el": 2534,
      "Tân_": 2535,
      "lỗ</w>": 2536,
      "hành</w>": 2537,
      "trò_chơi</w>": 2538,
      "nhiên_liệu</w>": 2539,
      "bạc</w>": 2540,
      "Video</w>": 2541,
      "đuổi</w>": 2542,
      "Dưới</w>": 2543,
      "khủng</w>": 2544,
      "j": 2545,
      "lịch</w>": 2546,
      "Putin</w>": 2547,
      "Cần</w>": 2548,
      "đề_cập</w>": 2549,
      "Nghĩa</w>": 2550,
      "MU</w>": 2551,
      "biến_đổi</w>": 2552,
      "buôn_bán</w>": 2553,
      "vươn</w>": 2554,
      "150</w>": 2555,
      "quen_thuộc</w>": 2556,
      "chức_vụ</w>": 2557,
      "tên_tuổi</w>": 2558,
      "hạn</w>": 2559,
      "cực_kỳ</w>": 2560,
      "đồng_bộ</w>": 2561,
      "mực</w>": 2562,
      "đất_đai</w>": 2563,
      "di_sản</w>": 2564,
      "Sao</w>": 2565,
      "Barcelona</w>": 2566,
      "dự_đoán</w>": 2567,
      "loại_bỏ</w>": 2568,
      "mất_tích</w>": 2569,
      "Nhìn</w>": 2570,
      "doanh_nhân</w>": 2571,
      "s_": 2572,
      "is</w>": 2573,
      "tài_trợ</w>": 2574,
      "nặng_nề</w>": 2575,
      "1": 2576,
      "chăn_nuôi</w>": 2577,
      "sang_trọng</w>": 2578,
      "Tổ_quốc</w>": 2579,
      "đặc_trưng</w>": 2580,
      "2.000</w>": 2581,
      "tích_hợp</w>": 2582,
      "Thuỷ</w>": 2583,
      "Nghiên_cứu</w>": 2584,
      "Nguyên_nhân</w>": 2585,
      ".": 2586,
      "săn</w>": 2587,
      "chìm</w>": 2588,
      "rắn</w>": 2589,
      "Làm</w>": 2590,
      "cân_bằng</w>": 2591,
      "ro": 2592,
      "Android</w>": 2593,
      "đậu</w>": 2594,
      "một_mình</w>": 2595,
      "sai_lầm</w>": 2596,
      "bông</w>": 2597,
      "quyền_lực</w>": 2598,
      "Messi</w>": 2599,
      "Thương_mại</w>": 2600,
      "cảm_nhận</w>": 2601,
      "hạng_mục</w>": 2602,
      "Tổng</w>": 2603,
      "bán_kết</w>": 2604,
      "dứt_điểm</w>": 2605,
      "33</w>": 2606,
      "đĩa</w>": 2607,
      "định</w>": 2608,
      "xứng_đáng</w>": 2609,
      "ra": 2610,
      "Tỉnh_uỷ</w>": 2611,
      "quyến_rũ</w>": 2612,
      "cỏ</w>": 2613,
      "nghiêm</w>": 2614,
      "tây</w>": 2615,
      "rộng_rãi</w>": 2616,
      "17": 2617,
      "quê_hương</w>": 2618,
      "Quảng_Ngãi</w>": 2619,
      "hoá_chất</w>": 2620,
      "tưởng</w>": 2621,
      "sâu_sắc</w>": 2622,
      "phát_sinh</w>": 2623,
      "ngay_lập_tức</w>": 2624,
      "giới_hạn</w>": 2625,
      "biệt_thự</w>": 2626,
      "củ</w>": 2627,
      "xóm</w>": 2628,
      "bạo_lực</w>": 2629,
      "ngầm</w>": 2630,
      "nhấn</w>": 2631,
      "us</w>": 2632,
      "tín_hiệu</w>": 2633,
      "tượng</w>": 2634,
      "Huy</w>": 2635,
      "gương</w>": 2636,
      "sạt_lở</w>": 2637,
      "inch</w>": 2638,
      "giường</w>": 2639,
      "tin_đồn</w>": 2640,
      "Đại_sứ</w>": 2641,
      "trưng_bày</w>": 2642,
      "Argentina</w>": 2643,
      "la</w>": 2644,
      "cờ</w>": 2645,
      "phục_hồi</w>": 2646,
      "New_York</w>": 2647,
      "thần</w>": 2648,
      "Giang</w>": 2649,
      "xe_buýt</w>": 2650,
      "tăng_giá</w>": 2651,
      "tâm</w>": 2652,
      "Bằng</w>": 2653,
      "Kỳ</w>": 2654,
      "heo</w>": 2655,
      "Học_viện</w>": 2656,
      "liên</w>": 2657,
      "tiểu_học</w>": 2658,
      "on": 2659,
      "Thể_thao</w>": 2660,
      "chú_trọng</w>": 2661,
      "ong</w>": 2662,
      "Toàn</w>": 2663,
      "thuỷ_điện</w>": 2664,
      "quan</w>": 2665,
      "Kh": 2666,
      "gi": 2667,
      "tư_nhân</w>": 2668,
      "2019</w>": 2669,
      "10.000</w>": 2670,
      "R</w>": 2671,
      "hot</w>": 2672,
      "theo_đuổi</w>": 2673,
      "mở_cửa</w>": 2674,
      "album</w>": 2675,
      "tuân_thủ</w>": 2676,
      "an_": 2677,
      "_L": 2678,
      "Ai</w>": 2679,
      "trò</w>": 2680,
      "London</w>": 2681,
      "34</w>": 2682,
      "VĐV</w>": 2683,
      "nguồn_lực</w>": 2684,
      "hư_hỏng</w>": 2685,
      "0": 2686,
      "đối_đầu</w>": 2687,
      "đoàn_kết</w>": 2688,
      "and</w>": 2689,
      "Lao_động</w>": 2690,
      "T&T</w>": 2691,
      "hội_thảo</w>": 2692,
      "thận</w>": 2693,
      "bụi</w>": 2694,
      "Đông_Nam_Á</w>": 2695,
      "Phía</w>": 2696,
      "động</w>": 2697,
      "độc_giả</w>": 2698,
      "Báo_cáo</w>": 2699,
      "biểu_tượng</w>": 2700,
      "trái_tim</w>": 2701,
      "khuôn_khổ</w>": 2702,
      "củng_cố</w>": 2703,
      "ví_dụ</w>": 2704,
      "]</w>": 2705,
      "phân_phối</w>": 2706,
      "trang_trí</w>": 2707,
      "BOT</w>": 2708,
      "ngày_nay</w>": 2709,
      "kêu</w>": 2710,
      "Đông_": 2711,
      "làm_ăn</w>": 2712,
      "mọc</w>": 2713,
      "Hồi</w>": 2714,
      "thi_thể</w>": 2715,
      "ước_tính</w>": 2716,
      "Liên_Xô</w>": 2717,
      "đối_thoại</w>": 2718,
      "H.": 2719,
      "Re": 2720,
      "gia_nhập</w>": 2721,
      "600</w>": 2722,
      "le": 2723,
      "euro</w>": 2724,
      "mỏng</w>": 2725,
      "chạm</w>": 2726,
      "phấn_đấu</w>": 2727,
      "thiên_tai</w>": 2728,
      "nghiệp_vụ</w>": 2729,
      "cỡ</w>": 2730,
      "thử_thách</w>": 2731,
      "thích_hợp</w>": 2732,
      "béo</w>": 2733,
      "tan</w>": 2734,
      "[</w>": 2735,
      "F</w>": 2736,
      "dàn</w>": 2737,
      "Toà_án</w>": 2738,
      "Liên_minh</w>": 2739,
      "người_bệnh</w>": 2740,
      "Moscow</w>": 2741,
      "ngạc_nhiên</w>": 2742,
      "Trương_": 2743,
      "Phải</w>": 2744,
      "Ngọc_": 2745,
      "sáng_tác</w>": 2746,
      "quần</w>": 2747,
      "Khoa_học</w>": 2748,
      "cm</w>": 2749,
      "bơi</w>": 2750,
      "nhan_sắc</w>": 2751,
      "sơn</w>": 2752,
      "am": 2753,
      "V</w>": 2754,
      "Quận</w>": 2755,
      "nụ</w>": 2756,
      "phương_thức</w>": 2757,
      "2004</w>": 2758,
      "HAGL</w>": 2759,
      "đông_đảo</w>": 2760,
      "10%</w>": 2761,
      "đeo</w>": 2762,
      "Cup</w>": 2763,
      "tối_thiểu</w>": 2764,
      "trung</w>": 2765,
      "mừng</w>": 2766,
      "mềm</w>": 2767,
      "Lãnh_đạo</w>": 2768,
      "nội_địa</w>": 2769,
      "15": 2770,
      "kem</w>": 2771,
      "chưa_thể</w>": 2772,
      "vững</w>": 2773,
      "b</w>": 2774,
      "Minh_": 2775,
      "phạm_tội</w>": 2776,
      "Phúc</w>": 2777,
      "tuyệt_đối</w>": 2778,
      "Bình_Định</w>": 2779,
      "bác</w>": 2780,
      "cổ_đông</w>": 2781,
      "qua_đời</w>": 2782,
      "Tổng_công_ty</w>": 2783,
      "niêm_yết</w>": 2784,
      "Quảng_Bình</w>": 2785,
      "cứu_hộ</w>": 2786,
      "G</w>": 2787,
      "đề_án</w>": 2788,
      "12": 2789,
      "Phan_": 2790,
      "Mexico</w>": 2791,
      "lực</w>": 2792,
      "tiêu_diệt</w>": 2793,
      "công_viên</w>": 2794,
      "ng</w>": 2795,
      "tiêm</w>": 2796,
      "trang_web</w>": 2797,
      "siêu_thị</w>": 2798,
      "n_": 2799,
      "Ai_Cập</w>": 2800,
      "do": 2801,
      "Ý</w>": 2802,
      "mổ</w>": 2803,
      "thất_vọng</w>": 2804,
      "kịch_bản</w>": 2805,
      "so_sánh</w>": 2806,
      "Thường_trực</w>": 2807,
      "Mourinho</w>": 2808,
      "sợi</w>": 2809,
      "37</w>": 2810,
      "ad": 2811,
      "0,": 2812,
      "Dự_kiến</w>": 2813,
      "Chi_cục</w>": 2814,
      "Mar": 2815,
      "Cổ_phần</w>": 2816,
      "xoay</w>": 2817,
      "tuần_tra</w>": 2818,
      "khớp</w>": 2819,
      "Hơn_nữa</w>": 2820,
      "xoá</w>": 2821,
      "Mùa</w>": 2822,
      "Premier_League</w>": 2823,
      "nhà_văn</w>": 2824,
      "chiếm_đoạt</w>": 2825,
      "minh_bạch</w>": 2826,
      "muộn</w>": 2827,
      "lắp_đặt</w>": 2828,
      "bán_lẻ</w>": 2829,
      "gợi_cảm</w>": 2830,
      "va_chạm</w>": 2831,
      "Thái_Bình_Dương</w>": 2832,
      "sửa</w>": 2833,
      "trần</w>": 2834,
      "trò_chuyện</w>": 2835,
      "tính_chất</w>": 2836,
      "Nước</w>": 2837,
      "bát</w>": 2838,
      "Tập</w>": 2839,
      "Microsoft</w>": 2840,
      "Thanh_": 2841,
      "Quân</w>": 2842,
      "lợi_dụng</w>": 2843,
      "38</w>": 2844,
      "qu": 2845,
      "mảng</w>": 2846,
      "Đại_": 2847,
      "_B": 2848,
      "mộ</w>": 2849,
      "trực_thuộc</w>": 2850,
      "GS</w>": 2851,
      "Cầu</w>": 2852,
      "sản_lượng</w>": 2853,
      "kiêm</w>": 2854,
      "Thêm</w>": 2855,
      "chiến</w>": 2856,
      "mỡ</w>": 2857,
      "Tin</w>": 2858,
      "hài</w>": 2859,
      "tư_tưởng</w>": 2860,
      "kích_thích</w>": 2861,
      "1,5</w>": 2862,
      "ấp</w>": 2863,
      "khẩn_trương</w>": 2864,
      "Hiếu</w>": 2865,
      "vùng_đất</w>": 2866,
      "Kể</w>": 2867,
      "Nhà_máy</w>": 2868,
      "từ_thiện</w>": 2869,
      "canh</w>": 2870,
      "góp_mặt</w>": 2871,
      "Thái_Bình</w>": 2872,
      "16": 2873,
      "động_thái</w>": 2874,
      "tại_chỗ</w>": 2875,
      "nói_riêng</w>": 2876,
      "ngôn_ngữ</w>": 2877,
      "Lý_": 2878,
      "Liên_quan</w>": 2879,
      "bắt_buộc</w>": 2880,
      "thu_hoạch</w>": 2881,
      "dâng</w>": 2882,
      "Thảo</w>": 2883,
      "Nông_nghiệp</w>": 2884,
      "phát_sóng</w>": 2885,
      "Thu</w>": 2886,
      "hành_tinh</w>": 2887,
      "đẻ</w>": 2888,
      "bốc</w>": 2889,
      "âm_thanh</w>": 2890,
      "Thấy</w>": 2891,
      "thừa</w>": 2892,
      "20%</w>": 2893,
      "khuôn_mặt</w>": 2894,
      "Xuân_": 2895,
      "tràn</w>": 2896,
      "quá_khứ</w>": 2897,
      "Đi</w>": 2898,
      "hứa</w>": 2899,
      "cụm</w>": 2900,
      "Hàn</w>": 2901,
      "kết</w>": 2902,
      "hầu_như</w>": 2903,
      "Gia_Lai</w>": 2904,
      "đợi</w>": 2905,
      "xác</w>": 2906,
      "mặt_trời</w>": 2907,
      "thức</w>": 2908,
      "Có_lẽ</w>": 2909,
      "mầm_non</w>": 2910,
      "đường_phố</w>": 2911,
      "phong_độ</w>": 2912,
      "lò</w>": 2913,
      "vải</w>": 2914,
      "hứa_hẹn</w>": 2915,
      "Hải_quan</w>": 2916,
      "dông</w>": 2917,
      "Phần</w>": 2918,
      "đại</w>": 2919,
      "Honda</w>": 2920,
      "website</w>": 2921,
      "chuyên_ngành</w>": 2922,
      "Le": 2923,
      "khơi</w>": 2924,
      "áp</w>": 2925,
      "_</w>": 2926,
      "thực</w>": 2927,
      "hải_quân</w>": 2928,
      "Ngô_": 2929,
      "xe_tăng</w>": 2930,
      "khói</w>": 2931,
      "toả</w>": 2932,
      "Đào_tạo</w>": 2933,
      "thuốc_lá</w>": 2934,
      "châu</w>": 2935,
      "Nhân</w>": 2936,
      "virus</w>": 2937,
      "re": 2938,
      "Vân</w>": 2939,
      "cá_tính</w>": 2940,
      "bọ</w>": 2941,
      "Myanmar</w>": 2942,
      "giam</w>": 2943,
      "tốn</w>": 2944,
      "phi_công</w>": 2945,
      "Gi": 2946,
      "cam</w>": 2947,
      "lọc</w>": 2948,
      "el</w>": 2949,
      "Đà_Lạt</w>": 2950,
      "cứng</w>": 2951,
      "r</w>": 2952,
      "gọn</w>": 2953,
      "TV</w>": 2954,
      "Tây_Nguyên</w>": 2955,
      "giáp</w>": 2956,
      "Xe</w>": 2957,
      "văn</w>": 2958,
      "trâu</w>": 2959,
      "Đừng</w>": 2960,
      "lừa_đảo</w>": 2961,
      "thực_thi</w>": 2962,
      "cân_nhắc</w>": 2963,
      "Hải_Dương</w>": 2964,
      "Văn</w>": 2965,
      "Nhân_dân</w>": 2966,
      "tông</w>": 2967,
      "do_đó</w>": 2968,
      "_M": 2969,
      "tương_đối</w>": 2970,
      "đối_phó</w>": 2971,
      "mỏ</w>": 2972,
      "hẹn</w>": 2973,
      "con_cái</w>": 2974,
      "môi</w>": 2975,
      "30%</w>": 2976,
      "trình_bày</w>": 2977,
      "Thường_vụ</w>": 2978,
      "chuyển_giao</w>": 2979,
      "Thăng_Long</w>": 2980,
      "tham_khảo</w>": 2981,
      "ghép</w>": 2982,
      "u_": 2983,
      "Lào_Cai</w>": 2984,
      "CĐV</w>": 2985,
      "ana</w>": 2986,
      "phe</w>": 2987,
      "thông_điệp</w>": 2988,
      "5.000</w>": 2989,
      "khó_chịu</w>": 2990,
      "ô</w>": 2991,
      "SEA_Games</w>": 2992,
      "nhãn</w>": 2993,
      "sập</w>": 2994,
      "cô_giáo</w>": 2995,
      "khiếu_nại</w>": 2996,
      "Quảng_Trị</w>": 2997,
      "gánh</w>": 2998,
      "55</w>": 2999,
      "Mình</w>": 3000,
      "BTC</w>": 3001,
      "cắm</w>": 3002,
      "THCS</w>": 3003,
      "đồng_minh</w>": 3004,
      "co</w>": 3005,
      "tiêu_biểu</w>": 3006,
      "ngăn</w>": 3007,
      "Tổng_giám_đốc</w>": 3008,
      "xe_đạp</w>": 3009,
      "đài</w>": 3010,
      "chứng</w>": 3011,
      "14": 3012,
      "biên_bản</w>": 3013,
      "kh": 3014,
      "Đêm</w>": 3015,
      "Nha_Trang</w>": 3016,
      "diễn_đàn</w>": 3017,
      "tổng_thể</w>": 3018,
      "Quốc</w>": 3019,
      "48</w>": 3020,
      "Ho": 3021,
      "bất_chấp</w>": 3022,
      "Trần_Văn_": 3023,
      "trái_cây</w>": 3024,
      "dẫn_dắt</w>": 3025,
      "thủ_môn</w>": 3026,
      "An_ninh</w>": 3027,
      "Do_vậy</w>": 3028,
      "loại_hình</w>": 3029,
      "nướng</w>": 3030,
      "chanh</w>": 3031,
      "3.000</w>": 3032,
      "Ar": 3033,
      "Nguyễn_Xuân_Phúc</w>": 3034,
      "nhà_nghiên_cứu</w>": 3035,
      "Rồi</w>": 3036,
      "thẩm_định</w>": 3037,
      "il": 3038,
      "chai</w>": 3039,
      "ho": 3040,
      "lập_tức</w>": 3041,
      "khoẻ_mạnh</w>": 3042,
      "phân_biệt</w>": 3043,
      "đuôi</w>": 3044,
      "tư_cách</w>": 3045,
      "bằng_chứng</w>": 3046,
      "khởi_nghiệp</w>": 3047,
      "tài_nguyên</w>": 3048,
      "trạng_thái</w>": 3049,
      "cắt_giảm</w>": 3050,
      "phủ_nhận</w>": 3051,
      "dừa</w>": 3052,
      "ngựa</w>": 3053,
      "hỏng</w>": 3054,
      "trại</w>": 3055,
      "chế</w>": 3056,
      "che</w>": 3057,
      "đa_số</w>": 3058,
      "nội_bộ</w>": 3059,
      "khoảnh_khắc</w>": 3060,
      "chấp_hành</w>": 3061,
      "Cuba</w>": 3062,
      "viễn_thông</w>": 3063,
      "Bộ_Chính_trị</w>": 3064,
      "ac": 3065,
      "tour</w>": 3066,
      "ứng_viên</w>": 3067,
      "Cà_Mau</w>": 3068,
      "ch</w>": 3069,
      "giật</w>": 3070,
      "Hy_Lạp</w>": 3071,
      "chốt</w>": 3072,
      "Ví_dụ</w>": 3073,
      "Xã</w>": 3074,
      "ao</w>": 3075,
      "AP</w>": 3076,
      "cao_tốc</w>": 3077,
      "kinh</w>": 3078,
      "HS</w>": 3079,
      "Hằng</w>": 3080,
      "Khánh</w>": 3081,
      "tiên_tiến</w>": 3082,
      "đảng_viên</w>": 3083,
      "trộn</w>": 3084,
      "GD-ĐT</w>": 3085,
      "O</w>": 3086,
      "khởi_động</w>": 3087,
      "ly_hôn</w>": 3088,
      "Đầu</w>": 3089,
      "thu_thập</w>": 3090,
      "Bỉ</w>": 3091,
      "nhạy_cảm</w>": 3092,
      "cánh_cứng</w>": 3093,
      "đại_lý</w>": 3094,
      "hội_nhập</w>": 3095,
      "mạng_lưới</w>": 3096,
      "di_dời</w>": 3097,
      "nấm</w>": 3098,
      "Trước_đây</w>": 3099,
      "800</w>": 3100,
      "Ba_Lan</w>": 3101,
      "không_quân</w>": 3102,
      "thợ</w>": 3103,
      "as</w>": 3104,
      "tỉ_lệ</w>": 3105,
      "tổng_cộng</w>": 3106,
      "Nam_Định</w>": 3107,
      "giảng_dạy</w>": 3108,
      "Hiền</w>": 3109,
      "tướng</w>": 3110,
      "Bồ_Đào_Nha</w>": 3111,
      "đề_tài</w>": 3112,
      "ước</w>": 3113,
      "phun</w>": 3114,
      "nhân_sự</w>": 3115,
      "bẩn</w>": 3116,
      "Mai_": 3117,
      "thải</w>": 3118,
      "đồng_tiền</w>": 3119,
      "khuyến_cáo</w>": 3120,
      "42</w>": 3121,
      "bài_học</w>": 3122,
      "1/": 3123,
      "vi_khuẩn</w>": 3124,
      "Tài_nguyên</w>": 3125,
      "Sông</w>": 3126,
      "năng_suất</w>": 3127,
      "thiết_thực</w>": 3128,
      "bọn</w>": 3129,
      "công_bằng</w>": 3130,
      "ngại</w>": 3131,
      "Trận</w>": 3132,
      "sân_nhà</w>": 3133,
      "đôi_khi</w>": 3134,
      "mượn</w>": 3135,
      "tập_trận</w>": 3136,
      "hoa_hậu</w>": 3137,
      "Truyền_thông</w>": 3138,
      "tố</w>": 3139,
      "BHYT</w>": 3140,
      "Ma": 3141,
      "hắn</w>": 3142,
      "": 3143,
      "Chia_sẻ</w>": 3144,
      "nghĩa_vụ</w>": 3145,
      "xúc_động</w>": 3146,
      "đành</w>": 3147,
      "at": 3148,
      "lộ_trình</w>": 3149,
      "nghề_nghiệp</w>": 3150,
      "cơ_sở_hạ_tầng</w>": 3151,
      "hợp_pháp</w>": 3152,
      "lứa</w>": 3153,
      "phổi</w>": 3154,
      "Á.</w>": 3155,
      "Bản</w>": 3156,
      "HĐQT</w>": 3157,
      "sáu</w>": 3158,
      "xét_nghiệm</w>": 3159,
      "01</w>": 3160,
      "Q.</w>": 3161,
      "căn_bệnh</w>": 3162,
      "bỏ_qua</w>": 3163,
      "tu": 3164,
      "khổ</w>": 3165,
      "công_văn</w>": 3166,
      "trọng_lượng</w>": 3167,
      "quần_đảo</w>": 3168,
      "học_viên</w>": 3169,
      "Nhiệt_độ</w>": 3170,
      "Thái_Nguyên</w>": 3171,
      "toà_án</w>": 3172,
      "di": 3173,
      "tay_vợt</w>": 3174,
      "ar</w>": 3175,
      "tương_ứng</w>": 3176,
      "Bùi_": 3177,
      "bàn_tay</w>": 3178,
      "Co": 3179,
      "ngâm</w>": 3180,
      "thú</w>": 3181,
      "truy_cập</w>": 3182,
      "khẩu</w>": 3183,
      "triệu_chứng</w>": 3184,
      "nhập_viện</w>": 3185,
      "tháp</w>": 3186,
      "An_": 3187,
      "thân_thiện</w>": 3188,
      "mai</w>": 3189,
      "đấu_giá</w>": 3190,
      "65</w>": 3191,
      "m_": 3192,
      "tiến_bộ</w>": 3193,
      "Vấn_đề</w>": 3194,
      "2003</w>": 3195,
      "hàng_xóm</w>": 3196,
      "thí_điểm</w>": 3197,
      "lu": 3198,
      "đồng_hành</w>": 3199,
      "U19</w>": 3200,
      "giấc</w>": 3201,
      "39</w>": 3202,
      "Khu_vực</w>": 3203,
      "An": 3204,
      "trung_ương</w>": 3205,
      "man</w>": 3206,
      "bạn_đọc</w>": 3207,
      "Cứ</w>": 3208,
      "Đặng_": 3209,
      "mạch</w>": 3210,
      "ốc</w>": 3211,
      "Trần</w>": 3212,
      "thờ</w>": 3213,
      "13": 3214,
      "internet</w>": 3215,
      "xăng_dầu</w>": 3216,
      "ngờ</w>": 3217,
      "đáy</w>": 3218,
      "chuối</w>": 3219,
      "đỡ</w>": 3220,
      "phong_phú</w>": 3221,
      "bị_can</w>": 3222,
      "Cuối</w>": 3223,
      "xử</w>": 3224,
      "Trường_Sa</w>": 3225,
      "Lê_Văn_": 3226,
      "so": 3227,
      "lông</w>": 3228,
      "APEC</w>": 3229,
      "lưu</w>": 3230,
      "Tổng_hợp</w>": 3231,
      "phòng_không</w>": 3232,
      "đột_phá</w>": 3233,
      "Huỳnh_": 3234,
      "Cuối_cùng</w>": 3235,
      "thực_tiễn</w>": 3236,
      "Đỗ_": 3237,
      "biên_chế</w>": 3238,
      "vui_chơi</w>": 3239,
      "ma": 3240,
      "Olympic</w>": 3241,
      "bí_ẩn</w>": 3242,
      "Bắc_Ninh</w>": 3243,
      "Nên</w>": 3244,
      "non</w>": 3245,
      "chặng</w>": 3246,
      "câu_lạc_bộ</w>": 3247,
      "Hôm</w>": 3248,
      "Phụ_nữ</w>": 3249,
      "chừng</w>": 3250,
      "đẳng_cấp</w>": 3251,
      "chinh_phục</w>": 3252,
      "hôn</w>": 3253,
      "Đúng</w>": 3254,
      "75</w>": 3255,
      "hiệu</w>": 3256,
      "anh_chàng</w>": 3257,
      "hậu</w>": 3258,
      "Lễ_hội</w>": 3259,
      "phiến_quân</w>": 3260,
      "đường_dây</w>": 3261,
      "Di": 3262,
      "chi_trả</w>": 3263,
      "Thái_": 3264,
      "tạm_thời</w>": 3265,
      "bỏ_phiếu</w>": 3266,
      "thi_đua</w>": 3267,
      "thẩm_mỹ</w>": 3268,
      "Tổ</w>": 3269,
      "diễn_xuất</w>": 3270,
      "Không_quân</w>": 3271,
      "Lý</w>": 3272,
      "BĐS</w>": 3273,
      "tiêu_hoá</w>": 3274,
      "Nh": 3275,
      "Long_An</w>": 3276,
      "chủ_nhân</w>": 3277,
      "chứng_tỏ</w>": 3278,
      "thuê_bao</w>": 3279,
      "Xin</w>": 3280,
      "vướng_mắc</w>": 3281,
      "showbiz</w>": 3282,
      "46</w>": 3283,
      "hỗn_hợp</w>": 3284,
      "trọng_điểm</w>": 3285,
      "thích_thú</w>": 3286,
      "Dân_chủ</w>": 3287,
      "it": 3288,
      "cẩn_thận</w>": 3289,
      "đầm</w>": 3290,
      "chữa_cháy</w>": 3291,
      "tiết_mục</w>": 3292,
      "bơm</w>": 3293,
      "Toyota</w>": 3294,
      "Đề_án</w>": 3295,
      "đánh_dấu</w>": 3296,
      "Tú</w>": 3297,
      "chuột</w>": 3298,
      "CNTT</w>": 3299,
      "dáng</w>": 3300,
      "1990</w>": 3301,
      "2-3</w>": 3302,
      "binh_sĩ</w>": 3303,
      "điển_hình</w>": 3304,
      "Ng": 3305,
      "2,": 3306,
      "Bắc_": 3307,
      "hậu_vệ</w>": 3308,
      "dấu</w>": 3309,
      "nghiện</w>": 3310,
      "Sơn_La</w>": 3311,
      "hiến</w>": 3312,
      "Nhà_Trắng</w>": 3313,
      "giàu_có</w>": 3314,
      "700</w>": 3315,
      "Viettel</w>": 3316,
      "đình_chỉ</w>": 3317,
      "đối_lập</w>": 3318,
      "nở</w>": 3319,
      "dự_định</w>": 3320,
      "et": 3321,
      "ơi</w>": 3322,
      "nữ_sinh</w>": 3323,
      "gỡ</w>": 3324,
      "chấp_thuận</w>": 3325,
      "sưu_tập</w>": 3326,
      "Tư_pháp</w>": 3327,
      "Tuy_vậy</w>": 3328,
      "công_nghệ_cao</w>": 3329,
      "sen</w>": 3330,
      "5%</w>": 3331,
      "giáo_sư</w>": 3332,
      "Đài</w>": 3333,
      "đối_diện</w>": 3334,
      "GDP</w>": 3335,
      "vở</w>": 3336,
      "ứng_xử</w>": 3337,
      "bảo_quản</w>": 3338,
      "hẹn_hò</w>": 3339,
      "gần_gũi</w>": 3340,
      "BS</w>": 3341,
      "ta": 3342,
      "Hồng_": 3343,
      "Công</w>": 3344,
      "đo</w>": 3345,
      "rạng</w>": 3346,
      "Bình_Thuận</w>": 3347,
      "trị</w>": 3348,
      "Park</w>": 3349,
      "văn_minh</w>": 3350,
      "cải_tiến</w>": 3351,
      "bảo_mật</w>": 3352,
      "us": 3353,
      "bộ_máy</w>": 3354,
      "mẹ_con</w>": 3355,
      "phòng_thủ</w>": 3356,
      "Xã_hội</w>": 3357,
      "tập_huấn</w>": 3358,
      "lãng_mạn</w>": 3359,
      "biến_động</w>": 3360,
      "Quý</w>": 3361,
      "gạch</w>": 3362,
      "nhất_trí</w>": 3363,
      "suối</w>": 3364,
      "tiết</w>": 3365,
      "múa</w>": 3366,
      "chúc_mừng</w>": 3367,
      "người_lớn</w>": 3368,
      "Nội_vụ</w>": 3369,
      "gã</w>": 3370,
      "leo</w>": 3371,
      "vết_thương</w>": 3372,
      "yên_tâm</w>": 3373,
      "huỷ</w>": 3374,
      "Lộc</w>": 3375,
      "Lưu_": 3376,
      "ab": 3377,
      "Chi</w>": 3378,
      "Quỳnh</w>": 3379,
      "ước_mơ</w>": 3380,
      "lãng_phí</w>": 3381,
      "Car": 3382,
      "ngón</w>": 3383,
      "phát_động</w>": 3384,
      "id": 3385,
      "không_kích</w>": 3386,
      "ẩm_thực</w>": 3387,
      "hy_sinh</w>": 3388,
      "Tổng_Giám_đốc</w>": 3389,
      "hòn</w>": 3390,
      "viên_chức</w>": 3391,
      "đau_đớn</w>": 3392,
      "chém</w>": 3393,
      "Ninh_Bình</w>": 3394,
      "Thật</w>": 3395,
      "dạ_dày</w>": 3396,
      "TP.HCM.</w>": 3397,
      "Hiệp</w>": 3398,
      "nhầm</w>": 3399,
      "Vũng_Tàu</w>": 3400,
      "giá_cả</w>": 3401,
      "mặt_đất</w>": 3402,
      "ine</w>": 3403,
      "Afghanistan</w>": 3404,
      "tình_báo</w>": 3405,
      "Hạ_Long</w>": 3406,
      "chi_nhánh</w>": 3407,
      "liên_minh</w>": 3408,
      "ensis</w>": 3409,
      "120</w>": 3410,
      "quản_trị</w>": 3411,
      "chi_tiêu</w>": 3412,
      "nồi</w>": 3413,
      "quốc_lộ</w>": 3414,
      "43</w>": 3415,
      "lý_tưởng</w>": 3416,
      "ap": 3417,
      "cúp</w>": 3418,
      "dốc</w>": 3419,
      "trẻ_trung</w>": 3420,
      "son</w>": 3421,
      "Cao_": 3422,
      "ruộng</w>": 3423,
      "cấu_trúc</w>": 3424,
      "HIV</w>": 3425,
      "Phú_Thọ</w>": 3426,
      "dập</w>": 3427,
      "nhì</w>": 3428,
      "Tàu</w>": 3429,
      "Phật</w>": 3430,
      "học_bổng</w>": 3431,
      "dấu_ấn</w>": 3432,
      "khắp_nơi</w>": 3433,
      "nghỉ_ngơi</w>": 3434,
      "dân_sự</w>": 3435,
      "Tài</w>": 3436,
      "al-": 3437,
      "đ": 3438,
      "gãy</w>": 3439,
      "yên</w>": 3440,
      "nam_giới</w>": 3441,
      "đói</w>": 3442,
      "Se": 3443,
      "Thuỵ_Điển</w>": 3444,
      "kịch</w>": 3445,
      "Trường_hợp</w>": 3446,
      "anh_hùng</w>": 3447,
      "phong</w>": 3448,
      "Đại</w>": 3449,
      "Trả_lời</w>": 3450,
      "thu_giữ</w>": 3451,
      "bình_chọn</w>": 3452,
      "áo_dài</w>": 3453,
      "bất_cập</w>": 3454,
      "khoẻ</w>": 3455,
      "vệ_tinh</w>": 3456,
      "..</w>": 3457,
      "nguyện_vọng</w>": 3458,
      "Chủ_nhiệm</w>": 3459,
      "nhắc_nhở</w>": 3460,
      "châu_Phi</w>": 3461,
      "bản_quyền</w>": 3462,
      "2.": 3463,
      "vận</w>": 3464,
      "um</w>": 3465,
      "giảng_viên</w>": 3466,
      "dân_gian</w>": 3467,
      "trực_thăng</w>": 3468,
      "Vàng</w>": 3469,
      "Liên_đoàn</w>": 3470,
      "mèo</w>": 3471,
      "Italy</w>": 3472,
      "thân_thiết</w>": 3473,
      "căng</w>": 3474,
      "Sh": 3475,
      "Giờ</w>": 3476,
      "ứng_phó</w>": 3477,
      "Hầu_hết</w>": 3478,
      "sức_ép</w>": 3479,
      "1999</w>": 3480,
      "ag": 3481,
      "v</w>": 3482,
      "Lương</w>": 3483,
      "Trung_": 3484,
      "hài_hước</w>": 3485,
      "Tiếp</w>": 3486,
      "tuyển_dụng</w>": 3487,
      "quãng</w>": 3488,
      "ngõ</w>": 3489,
      "Liên</w>": 3490,
      "III</w>": 3491,
      "le</w>": 3492,
      "ic": 3493,
      "đ</w>": 3494,
      "ớt</w>": 3495,
      "danh_mục</w>": 3496,
      "ngọt_ngào</w>": 3497,
      "một_nửa</w>": 3498,
      "cố_tình</w>": 3499,
      "Vận_tải</w>": 3500,
      "tỷ_phú</w>": 3501,
      "tin_tức</w>": 3502,
      "2002</w>": 3503,
      "bản_đồ</w>": 3504,
      "Q": 3505,
      "trụ</w>": 3506,
      "Tối</w>": 3507,
      "nhịp</w>": 3508,
      "47</w>": 3509,
      "người_nhà</w>": 3510,
      "100.000</w>": 3511,
      "An_Giang</w>": 3512,
      "41</w>": 3513,
      "Phú_Yên</w>": 3514,
      "Nếu_như</w>": 3515,
      "to_lớn</w>": 3516,
      "Bo": 3517,
      "tuyệt</w>": 3518,
      "đà</w>": 3519,
      "tiểu</w>": 3520,
      "U</w>": 3521,
      "dãy</w>": 3522,
      "hiện_diện</w>": 3523,
      "Vương_": 3524,
      "ùn_tắc</w>": 3525,
      "HCV</w>": 3526,
      "huyền_thoại</w>": 3527,
      "say</w>": 3528,
      "na</w>": 3529,
      "Mo": 3530,
      "lạc</w>": 3531,
      "44</w>": 3532,
      "Bé</w>": 3533,
      "dân_chủ</w>": 3534,
      "z</w>": 3535,
      "im": 3536,
      "đồn</w>": 3537,
      "hải_sản</w>": 3538,
      "động_đất</w>": 3539,
      "Plus</w>": 3540,
      "49</w>": 3541,
      "Bình_Nhưỡng</w>": 3542,
      "vắng</w>": 3543,
      "đô_la</w>": 3544,
      "Thiên_": 3545,
      "Trung_Đông</w>": 3546,
      "nước_thải</w>": 3547,
      "PCCC</w>": 3548,
      "trinh_sát</w>": 3549,
      "dán</w>": 3550,
      "đón_nhận</w>": 3551,
      "nhắm</w>": 3552,
      "lành_mạnh</w>": 3553,
      "64</w>": 3554,
      "63</w>": 3555,
      "Dung</w>": 3556,
      "xe_khách</w>": 3557,
      "cây_xanh</w>": 3558,
      "học_hỏi</w>": 3559,
      "trượt</w>": 3560,
      "thảm_hoạ</w>": 3561,
      "Lâm_Đồng</w>": 3562,
      "Đảng_uỷ</w>": 3563,
      "Thực_hiện</w>": 3564,
      "tinh_tế</w>": 3565,
      "lưu_trữ</w>": 3566,
      "huy_chương</w>": 3567,
      "tiệm</w>": 3568,
      "phá_huỷ</w>": 3569,
      "phổ_thông</w>": 3570,
      "quy_chế</w>": 3571,
      "Trần_Thị_": 3572,
      "tư_duy</w>": 3573,
      "khách_quan</w>": 3574,
      "trọng_tâm</w>": 3575,
      "Lo": 3576,
      "Liên_hợp_quốc</w>": 3577,
      "thẳng_thắn</w>": 3578,
      "xuất_bản</w>": 3579,
      "hữu_nghị</w>": 3580,
      "Sinh</w>": 3581,
      "từ_bỏ</w>": 3582,
      "2001</w>": 3583,
      "Nhận</w>": 3584,
      "thực_chất</w>": 3585,
      "mụn</w>": 3586,
      "at</w>": 3587,
      "trùm</w>": 3588,
      "sinh_nhật</w>": 3589,
      "trang_điểm</w>": 3590,
      "ngoại_hình</w>": 3591,
      "Á_hậu</w>": 3592,
      "Sa": 3593,
      "Top</w>": 3594,
      "Công_Phượng</w>": 3595,
      "Mức</w>": 3596,
      "phần_nào</w>": 3597,
      "chỉ_định</w>": 3598,
      "kim</w>": 3599,
      "Thịnh</w>": 3600,
      "51</w>": 3601,
      "vô_tình</w>": 3602,
      "os": 3603,
      "ông_bà</w>": 3604,
      "khống_chế</w>": 3605,
      "Tiếng</w>": 3606,
      "hiểu_biết</w>": 3607,
      "Bác_sĩ</w>": 3608,
      "làm_đẹp</w>": 3609,
      "rối_loạn</w>": 3610,
      "su": 3611,
      "huấn_luyện_viên</w>": 3612,
      "ne": 3613,
      "sơ_thẩm</w>": 3614,
      "duyên</w>": 3615,
      "vị_thế</w>": 3616,
      "đăng_quang</w>": 3617,
      "lừa</w>": 3618,
      "250</w>": 3619,
      "nhìn_nhận</w>": 3620,
      "mật</w>": 3621,
      "Bác</w>": 3622,
      "nông_sản</w>": 3623,
      "thập_niên</w>": 3624,
      "nghỉ_dưỡng</w>": 3625,
      "Giáo_sư</w>": 3626,
      "Bar": 3627,
      "ạ</w>": 3628,
      "linh_hoạt</w>": 3629,
      "nếu_như</w>": 3630,
      "bọc</w>": 3631,
      "tham_mưu</w>": 3632,
      "chiến_thuật</w>": 3633,
      "miễn</w>": 3634,
      "sa</w>": 3635,
      "te": 3636,
      "lậu</w>": 3637,
      "đồng_nghĩa</w>": 3638,
      "tính_cách</w>": 3639,
      "song_phương</w>": 3640,
      "Hạnh</w>": 3641,
      "xôn_xao</w>": 3642,
      "N.</w>": 3643,
      "Doanh_nghiệp</w>": 3644,
      "dữ_dội</w>": 3645,
      "tranh_thủ</w>": 3646,
      "Cậu</w>": 3647,
      "chất_thải</w>": 3648,
      "tre</w>": 3649,
      "Su": 3650,
      "vận_động_viên</w>": 3651,
      "chiến_trường</w>": 3652,
      "luật_pháp</w>": 3653,
      "20.000</w>": 3654,
      "54</w>": 3655,
      "Nghe</w>": 3656,
      "se": 3657,
      "sôi_động</w>": 3658,
      "trang_thiết_bị</w>": 3659,
      "Italia</w>": 3660,
      "Đại_tá</w>": 3661,
      "Hà_Đông</w>": 3662,
      "52</w>": 3663,
      "km/h</w>": 3664,
      "Lê_Thị_": 3665,
      "lạm_phát</w>": 3666,
      "P.</w>": 3667,
      "sổ</w>": 3668,
      "Twitter</w>": 3669,
      "nội_thất</w>": 3670,
      "Bắc_Giang</w>": 3671,
      "U.</w>": 3672,
      "cống_hiến</w>": 3673,
      "đồi</w>": 3674,
      "thổi</w>": 3675,
      "Lâm_": 3676,
      "chiến_binh</w>": 3677,
      "năng_động</w>": 3678,
      "ina</w>": 3679,
      "eo</w>": 3680,
      "văn_học</w>": 3681,
      "dự_phòng</w>": 3682,
      "chào</w>": 3683,
      "VTV</w>": 3684,
      "đoán</w>": 3685,
      "cục</w>": 3686,
      "bồi_dưỡng</w>": 3687,
      "lẽ</w>": 3688,
      "chênh_lệch</w>": 3689,
      "xe_hơi</w>": 3690,
      "quá_tải</w>": 3691,
      "gia_vị</w>": 3692,
      "đối_ngoại</w>": 3693,
      "can</w>": 3694,
      "phòng_ngự</w>": 3695,
      "Vi": 3696,
      "thầy_trò</w>": 3697,
      "Chủ</w>": 3698,
      "Kiểm_tra</w>": 3699,
      "Windows</w>": 3700,
      "tức_là</w>": 3701,
      "tím</w>": 3702,
      "Hà_Giang</w>": 3703,
      "am</w>": 3704,
      "quốc</w>": 3705,
      "bấm</w>": 3706,
      "đền_bù</w>": 3707,
      "cổ_vũ</w>": 3708,
      "Qu": 3709,
      "Bây_giờ</w>": 3710,
      "nắng_nóng</w>": 3711,
      "Quang_": 3712,
      "hiện_hành</w>": 3713,
      "diệt</w>": 3714,
      "tổ_hợp</w>": 3715,
      "Hiệu_trưởng</w>": 3716,
      "Pakistan</w>": 3717,
      "công_lập</w>": 3718,
      "công_nghệ_thông_tin</w>": 3719,
      "Khoa</w>": 3720,
      "trước_mắt</w>": 3721,
      "m3</w>": 3722,
      "70%</w>": 3723,
      "Lịch_sử</w>": 3724,
      "FIFA</w>": 3725,
      "k_": 3726,
      "tính_mạng</w>": 3727,
      "Thời_điểm</w>": 3728,
      "dài_hạn</w>": 3729,
      "trục</w>": 3730,
      "La_": 3731,
      "bắt_tay</w>": 3732,
      "Phú</w>": 3733,
      "kiên_quyết</w>": 3734,
      "khởi_công</w>": 3735,
      "tiến_sĩ</w>": 3736,
      "Ảnh_": 3737,
      "trân_trọng</w>": 3738,
      "lắp</w>": 3739,
      "bác_sỹ</w>": 3740,
      "thường_trực</w>": 3741,
      "doanh_số</w>": 3742,
      "máy_móc</w>": 3743,
      "thắc_mắc</w>": 3744,
      "Tờ</w>": 3745,
      "làm_nên</w>": 3746,
      "nghị_quyết</w>": 3747,
      "72</w>": 3748,
      "iPad</w>": 3749,
      "Tổng_Bí_thư</w>": 3750,
      "Nguyễn</w>": 3751,
      "rạp</w>": 3752,
      "To": 3753,
      "Quốc_lộ</w>": 3754,
      "đứt</w>": 3755,
      "rèn_luyện</w>": 3756,
      "bán_đảo</w>": 3757,
      "chè</w>": 3758,
      "Áo</w>": 3759,
      "56</w>": 3760,
      "trọ</w>": 3761,
      "Luật_sư</w>": 3762,
      "bu": 3763,
      "tin_cậy</w>": 3764,
      "So</w>": 3765,
      "Chánh</w>": 3766,
      "giao_tiếp</w>": 3767,
      "Bảo_tàng</w>": 3768,
      "Liên_bang</w>": 3769,
      "thắt</w>": 3770,
      "trang_trại</w>": 3771,
      "thần_kinh</w>": 3772,
      "mo": 3773,
      "vương</w>": 3774,
      "Hải_": 3775,
      "giữ_gìn</w>": 3776,
      "....</w>": 3777,
      "hoá_đơn</w>": 3778,
      "rét</w>": 3779,
      "vui_mừng</w>": 3780,
      "cách_thức</w>": 3781,
      "L.</w>": 3782,
      "online</w>": 3783,
      "Mặt_trận</w>": 3784,
      "cung_ứng</w>": 3785,
      "cước</w>": 3786,
      "em": 3787,
      "chúc</w>": 3788,
      "Việt_": 3789,
      "T.": 3790,
      "Hôm_nay</w>": 3791,
      "giờ_đây</w>": 3792,
      "Công_": 3793,
      "vững_chắc</w>": 3794,
      "dịch_bệnh</w>": 3795,
      "ak": 3796,
      "tỏi</w>": 3797,
      "Võ_": 3798,
      "ứng_cử_viên</w>": 3799,
      "hội_đồng</w>": 3800,
      "đàn_bà</w>": 3801,
      "ẩm</w>": 3802,
      "Chỉ_đạo</w>": 3803,
      "dạo</w>": 3804,
      "NN</w>": 3805,
      "khôi_phục</w>": 3806,
      "chẩn_đoán</w>": 3807,
      "à</w>": 3808,
      "Triển_lãm</w>": 3809,
      "kỹ_sư</w>": 3810,
      "Hiệp_định</w>": 3811,
      "cảm_hứng</w>": 3812,
      "Đồng_Tháp</w>": 3813,
      "điện_thoại_di_động</w>": 3814,
      "quản_lý_nhà_nước</w>": 3815,
      "thập_kỷ</w>": 3816,
      "tàu_sân_bay</w>": 3817,
      "HĐXX</w>": 3818,
      "ir": 3819,
      "rực_rỡ</w>": 3820,
      "LHQ</w>": 3821,
      "30.000</w>": 3822,
      "Trạm</w>": 3823,
      "thắng_lợi</w>": 3824,
      "Bị</w>": 3825,
      "sân_chơi</w>": 3826,
      "Công_tác</w>": 3827,
      "A.</w>": 3828,
      "Kiên_Giang</w>": 3829,
      "bê_tông</w>": 3830,
      "cua</w>": 3831,
      "chip</w>": 3832,
      "lạm_dụng</w>": 3833,
      "chất_liệu</w>": 3834,
      "giám_định</w>": 3835,
      "đường_cao_tốc</w>": 3836,
      "Yên_Bái</w>": 3837,
      "email</w>": 3838,
      "sôi</w>": 3839,
      "lý_giải</w>": 3840,
      "Cuộc_sống</w>": 3841,
      "MT</w>": 3842,
      "voi</w>": 3843,
      "ang</w>": 3844,
      "nhí</w>": 3845,
      "Đắk_Lắk</w>": 3846,
      "NHNN</w>": 3847,
      "Tây_": 3848,
      "CN</w>": 3849,
      "Milan</w>": 3850,
      "sợ_hãi</w>": 3851,
      "dưỡng</w>": 3852,
      "Nhà_hát</w>": 3853,
      "ng_": 3854,
      "18": 3855,
      "4.000</w>": 3856,
      "nhiệt_tình</w>": 3857,
      "thân_hình</w>": 3858,
      "đòn</w>": 3859,
      "nát</w>": 3860,
      "triệt_để</w>": 3861,
      "CEO</w>": 3862,
      "đặc_thù</w>": 3863,
      "đằng</w>": 3864,
      "Tiến_sĩ</w>": 3865,
      "khăn</w>": 3866,
      "xăm</w>": 3867,
      "Thị_": 3868,
      "lắng_nghe</w>": 3869,
      "V-League</w>": 3870,
      "Tất_nhiên</w>": 3871,
      "hang</w>": 3872,
      "Ro": 3873,
      "De": 3874,
      "tiến_trình</w>": 3875,
      "_C": 3876,
      "Uber</w>": 3877,
      "quan_niệm</w>": 3878,
      "phanh</w>": 3879,
      "Phim</w>": 3880,
      "TT</w>": 3881,
      "So": 3882,
      "Thuận</w>": 3883,
      "phẩm</w>": 3884,
      "Hậu</w>": 3885,
      "Câu_chuyện</w>": 3886,
      "Mặt_khác</w>": 3887,
      "khuyết_tật</w>": 3888,
      "Ne": 3889,
      "Vịnh</w>": 3890,
      "Long_": 3891,
      "cao_điểm</w>": 3892,
      "Galaxy</w>": 3893,
      "Toà</w>": 3894,
      "Phạm_Văn_": 3895,
      "Hay</w>": 3896,
      "Bản_thân</w>": 3897,
      "Dân_số</w>": 3898,
      "lớp_học</w>": 3899,
      "kế</w>": 3900,
      "hệ_điều_hành</w>": 3901,
      "lý</w>": 3902,
      "2,5</w>": 3903,
      "hổ</w>": 3904,
      "ol": 3905,
      "vòng_loại</w>": 3906,
      "bi": 3907,
      "hàm_lượng</w>": 3908,
      "thực_trạng</w>": 3909,
      "Đa_khoa</w>": 3910,
      "Am": 3911,
      "Đinh_": 3912,
      "Cầu_Giấy</w>": 3913,
      "20": 3914,
      "te</w>": 3915,
      "đỉnh_cao</w>": 3916,
      "rác_thải</w>": 3917,
      "giải_cứu</w>": 3918,
      "dồn</w>": 3919,
      "Tokyo</w>": 3920,
      "thành_tựu</w>": 3921,
      "40%</w>": 3922,
      "đánh_bắt</w>": 3923,
      "kim_loại</w>": 3924,
      "Nokia</w>": 3925,
      "đồng_tình</w>": 3926,
      "TN</w>": 3927,
      "ngộ_độc</w>": 3928,
      "Đảng_bộ</w>": 3929,
      "đột_ngột</w>": 3930,
      "gia</w>": 3931,
      "80%</w>": 3932,
      "Cây</w>": 3933,
      "Công_nghiệp</w>": 3934,
      "container</w>": 3935,
      "tôn</w>": 3936,
      "CSĐT</w>": 3937,
      "sát_hại</w>": 3938,
      "Đại_sứ_quán</w>": 3939,
      "tôn_giáo</w>": 3940,
      "sạc</w>": 3941,
      "lỡ</w>": 3942,
      "53</w>": 3943,
      "Quả</w>": 3944,
      "trọn</w>": 3945,
      "số_phận</w>": 3946,
      "Nội_dung</w>": 3947,
      "vịnh</w>": 3948,
      "đầu_mối</w>": 3949,
      "lát</w>": 3950,
      "trích</w>": 3951,
      "62</w>": 3952,
      "tiền_mặt</w>": 3953,
      "nóng_bỏng</w>": 3954,
      "chất_vấn</w>": 3955,
      "Tuấn_Anh</w>": 3956,
      "Tân</w>": 3957,
      "Li": 3958,
      "đối</w>": 3959,
      "Dùng</w>": 3960,
      "f</w>": 3961,
      "nếp</w>": 3962,
      "BKS</w>": 3963,
      "chẳng_hạn</w>": 3964,
      "Câu</w>": 3965,
      "bảy</w>": 3966,
      "hành_lang</w>": 3967,
      "tôn_vinh</w>": 3968,
      "truy_tố</w>": 3969,
      "nước_sạch</w>": 3970,
      "nâu</w>": 3971,
      "vạn</w>": 3972,
      "Trấn_Thành</w>": 3973,
      "02</w>": 3974,
      "Hoàng_Anh</w>": 3975,
      "50.000</w>": 3976,
      "John_": 3977,
      "Hoàn_Kiếm</w>": 3978,
      "cực_đoan</w>": 3979,
      "ul": 3980,
      "đặc_điểm</w>": 3981,
      "Tiền_Giang</w>": 3982,
      "bận_rộn</w>": 3983,
      "mê</w>": 3984,
      "Quy_hoạch</w>": 3985,
      "băn_khoăn</w>": 3986,
      "thời_đại</w>": 3987,
      "ổ</w>": 3988,
      "Sang</w>": 3989,
      "thực_hành</w>": 3990,
      "Tương_tự</w>": 3991,
      "Tư</w>": 3992,
      "3.": 3993,
      "trung_vệ</w>": 3994,
      "ed": 3995,
      "sinh_học</w>": 3996,
      "Lý_do</w>": 3997,
      "loa</w>": 3998,
      "Thương</w>": 3999,
      "Hội_An</w>": 4000,
      "dao_động</w>": 4001,
      "gục</w>": 4002,
      "Bình_": 4003,
      "Chung</w>": 4004,
      "giảm_thiểu</w>": 4005,
      "binh</w>": 4006,
      "đấu_thầu</w>": 4007,
      "trái_phiếu</w>": 4008,
      "nhà_cửa</w>": 4009,
      "Me": 4010,
      "tác_chiến</w>": 4011,
      "có_khi</w>": 4012,
      "xâm_nhập</w>": 4013,
      "sh": 4014,
      "M.</w>": 4015,
      "tiền_lương</w>": 4016,
      "Châu_Âu</w>": 4017,
      "mật_độ</w>": 4018,
      "huyết_áp</w>": 4019,
      "cản_trở</w>": 4020,
      "Muốn</w>": 4021,
      "vây</w>": 4022,
      "58</w>": 4023,
      "xuống_cấp</w>": 4024,
      "dự_trữ</w>": 4025,
      "quy</w>": 4026,
      "In": 4027,
      "thằng</w>": 4028,
      "Loại</w>": 4029,
      "cô_dâu</w>": 4030,
      "Nơi</w>": 4031,
      "Đạt</w>": 4032,
      "Hong_Kong</w>": 4033,
      "tổng_kết</w>": 4034,
      "lùi</w>": 4035,
      "đồ_ăn</w>": 4036,
      "đề_cử</w>": 4037,
      "cao_su</w>": 4038,
      "trao_tặng</w>": 4039,
      "lấp</w>": 4040,
      "2%</w>": 4041,
      "vướng</w>": 4042,
      "học_phí</w>": 4043,
      "AFF</w>": 4044,
      "_H": 4045,
      "độc_hại</w>": 4046,
      "tình_nguyện</w>": 4047,
      "1995</w>": 4048,
      "Quốc_": 4049,
      "ho</w>": 4050,
      "Tỉnh</w>": 4051,
      "cân_đối</w>": 4052,
      "Sẽ</w>": 4053,
      "Trịnh_": 4054,
      "ter": 4055,
      "cửa_khẩu</w>": 4056,
      "10/": 4057,
      "di_cư</w>": 4058,
      "khéo_léo</w>": 4059,
      "nổi_dậy</w>": 4060,
      "1%</w>": 4061,
      "FPT</w>": 4062,
      "Ford</w>": 4063,
      "thận_trọng</w>": 4064,
      "chiêu</w>": 4065,
      "Trà</w>": 4066,
      "vượt_trội</w>": 4067,
      "Clip</w>": 4068,
      "90%</w>": 4069,
      "ám_ảnh</w>": 4070,
      "chả</w>": 4071,
      "bù</w>": 4072,
      "3%</w>": 4073,
      "Phương_": 4074,
      "sáng_kiến</w>": 4075,
      "cành</w>": 4076,
      "xuất_xứ</w>": 4077,
      "California</w>": 4078,
      "hải_quan</w>": 4079,
      "VOV</w>": 4080,
      "Lạng_Sơn</w>": 4081,
      "Ko": 4082,
      "phòng_ngừa</w>": 4083,
      "Tottenham</w>": 4084,
      "dọn</w>": 4085,
      "vịt</w>": 4086,
      "Vừa</w>": 4087,
      "hương_vị</w>": 4088,
      "mục</w>": 4089,
      "ngăn_ngừa</w>": 4090,
      "Tại_sao</w>": 4091,
      "Hưng_Yên</w>": 4092,
      "tham_vọng</w>": 4093,
      "tủ</w>": 4094,
      "bởi_vì</w>": 4095,
      "Quỹ</w>": 4096,
      "giá_thành</w>": 4097,
      "Du": 4098,
      "cống</w>": 4099,
      "sáng_lập</w>": 4100,
      "sa": 4101,
      "si": 4102,
      "ngoại_tệ</w>": 4103,
      "vi": 4104,
      "girl</w>": 4105,
      "Mà</w>": 4106,
      "Đất</w>": 4107,
      "khởi_đầu</w>": 4108,
      "Neymar</w>": 4109,
      "ni": 4110,
      "đựng</w>": 4111,
      "3,": 4112,
      "Hu": 4113,
      "d_": 4114,
      "nghiêng</w>": 4115,
      "va</w>": 4116,
      "Quá_trình</w>": 4117,
      "Lương_": 4118,
      "nhắn_tin</w>": 4119,
      "1998</w>": 4120,
      "T.Ư</w>": 4121,
      "bản_lĩnh</w>": 4122,
      "Bảo_vệ</w>": 4123,
      "phơi</w>": 4124,
      "mỹ_phẩm</w>": 4125,
      "4.": 4126,
      "cúm</w>": 4127,
      "Vụ_việc</w>": 4128,
      "et</w>": 4129,
      "hồi_phục</w>": 4130,
      "en_": 4131,
      "thăm_dò</w>": 4132,
      "Bức</w>": 4133,
      "Gia_": 4134,
      "không_những</w>": 4135,
      "ghé</w>": 4136,
      "giải_toả</w>": 4137,
      "Loan</w>": 4138,
      "im_lặng</w>": 4139,
      "Po": 4140,
      "Juventus</w>": 4141,
      "1-2</w>": 4142,
      "bác_bỏ</w>": 4143,
      "khu_phố</w>": 4144,
      "ki": 4145,
      "suy_giảm</w>": 4146,
      "Hoa_": 4147,
      "ngưỡng</w>": 4148,
      "Dự_báo</w>": 4149,
      "Ngôi</w>": 4150,
      "67</w>": 4151,
      "tệ</w>": 4152,
      "nhánh</w>": 4153,
      "Nhi</w>": 4154,
      "tháo_gỡ</w>": 4155,
      "liều</w>": 4156,
      "bo": 4157,
      "Thuỵ_Sĩ</w>": 4158,
      "Euro</w>": 4159,
      "rủ</w>": 4160,
      "Thư</w>": 4161,
      "Bảo</w>": 4162,
      "Ban_đầu</w>": 4163,
      "cắn</w>": 4164,
      "cất</w>": 4165,
      "VNPT</w>": 4166,
      "móng</w>": 4167,
      "Diễn_đàn</w>": 4168,
      "Giới</w>": 4169,
      "đống</w>": 4170,
      "trộm_cắp</w>": 4171,
      "Thanh_niên</w>": 4172,
      "5/": 4173,
      "chi": 4174,
      "radar</w>": 4175,
      "Hội_thảo</w>": 4176,
      "ci": 4177,
      "Giải_thưởng</w>": 4178,
      "1997</w>": 4179,
      "Lu": 4180,
      "đình</w>": 4181,
      "đau_đầu</w>": 4182,
      "km²</w>": 4183,
      "đặc_sản</w>": 4184,
      "cửa_sổ</w>": 4185,
      "_G": 4186,
      "Q</w>": 4187,
      "Mẫu</w>": 4188,
      "la": 4189,
      "Lời</w>": 4190,
      "mưa_rào</w>": 4191,
      "phản_hồi</w>": 4192,
      "Chính_quyền</w>": 4193,
      "Quỷ</w>": 4194,
      "tỉ_số</w>": 4195,
      "vũ_trụ</w>": 4196,
      "kinh_hoàng</w>": 4197,
      "om": 4198,
      "thị_phần</w>": 4199,
      "Tới</w>": 4200,
      "chuyền</w>": 4201,
      "chức_danh</w>": 4202,
      "bưởi</w>": 4203,
      "rao</w>": 4204,
      "cay</w>": 4205,
      "Vĩnh_": 4206,
      "Venezuela</w>": 4207,
      "cố_định</w>": 4208,
      "sáp_nhập</w>": 4209,
      "chủ_sở_hữu</w>": 4210,
      "danh_tiếng</w>": 4211,
      "gói_thầu</w>": 4212,
      "kỳ_lạ</w>": 4213,
      "robot</w>": 4214,
      "Cặp</w>": 4215,
      "1992</w>": 4216,
      "tranh_luận</w>": 4217,
      "thượng_đỉnh</w>": 4218,
      "se</w>": 4219,
      "ter</w>": 4220,
      "tựa</w>": 4221,
      "kép</w>": 4222,
      "Nam_Phi</w>": 4223,
      "lạc_quan</w>": 4224,
      "57</w>": 4225,
      "trợ_giúp</w>": 4226,
      "chân_thành</w>": 4227,
      "nhân_tạo</w>": 4228,
      "khoan</w>": 4229,
      "Thanh_Niên</w>": 4230,
      "tàu_chiến</w>": 4231,
      "Vĩnh_Phúc</w>": 4232,
      "PC</w>": 4233,
      "men</w>": 4234,
      "facebook</w>": 4235,
      "dụng_cụ</w>": 4236,
      "thương_vụ</w>": 4237,
      "chôn</w>": 4238,
      "bước_đi</w>": 4239,
      "Đống_Đa</w>": 4240,
      "chê</w>": 4241,
      "Kiên</w>": 4242,
      "1993</w>": 4243,
      "giải_ngân</w>": 4244,
      "cúng</w>": 4245,
      "Bắc_Bộ</w>": 4246,
      "nghi_vấn</w>": 4247,
      "mặn</w>": 4248,
      "Phú_Quốc</w>": 4249,
      "tứ_kết</w>": 4250,
      "de": 4251,
      "er_": 4252,
      "đắp</w>": 4253,
      "chậu</w>": 4254,
      "xưởng</w>": 4255,
      "NSƯT</w>": 4256,
      "mồi</w>": 4257,
      "ton</w>": 4258,
      "cao_đẳng</w>": 4259,
      "Kỹ_thuật</w>": 4260,
      "No": 4261,
      "đồ_chơi</w>": 4262,
      "cảm</w>": 4263,
      "truyện</w>": 4264,
      "hạ_cánh</w>": 4265,
      "tranh_cử</w>": 4266,
      "Lê</w>": 4267,
      "85</w>": 4268,
      "Hồng_Kông</w>": 4269,
      "tiện_ích</w>": 4270,
      "đình_đám</w>": 4271,
      "Mi": 4272,
      "phân_công</w>": 4273,
      "vội</w>": 4274,
      "đặt_hàng</w>": 4275,
      "Thị_trường</w>": 4276,
      "68</w>": 4277,
      "1994</w>": 4278,
      "ay": 4279,
      "bùng_nổ</w>": 4280,
      "gay_gắt</w>": 4281,
      "trí_tuệ</w>": 4282,
      "bó</w>": 4283,
      "1996</w>": 4284,
      "đảm_nhận</w>": 4285,
      "Vợ</w>": 4286,
      "khen_ngợi</w>": 4287,
      "Hà_Nam</w>": 4288,
      "200.000</w>": 4289,
      "7%</w>": 4290,
      "đồng_loạt</w>": 4291,
      "bình_tĩnh</w>": 4292,
      "lân_cận</w>": 4293,
      "hiển_thị</w>": 4294,
      "ồn_ào</w>": 4295,
      "nhập_cư</w>": 4296,
      "Chẳng_hạn</w>": 4297,
      "Dịch_vụ</w>": 4298,
      "hào_hứng</w>": 4299,
      "tự_nguyện</w>": 4300,
      "đích</w>": 4301,
      "xúc_tiến</w>": 4302,
      "Hoàng_Sa</w>": 4303,
      "ngày_một</w>": 4304,
      "chuyển_biến</w>": 4305,
      "tiền_bạc</w>": 4306,
      "6/": 4307,
      "Quyền</w>": 4308,
      "báo_động</w>": 4309,
      "vóc_dáng</w>": 4310,
      "thái</w>": 4311,
      "lương_thực</w>": 4312,
      "thầy_cô</w>": 4313,
      "nắm_bắt</w>": 4314,
      "El": 4315,
      "Ngọc_Trinh</w>": 4316,
      "Tây_Bắc</w>": 4317,
      "MTTQ</w>": 4318,
      "đặc_sắc</w>": 4319,
      "Bảo_": 4320,
      "500.000</w>": 4321,
      "Tiền</w>": 4322,
      "no": 4323,
      "Par": 4324,
      "HTX</w>": 4325,
      "SLNA</w>": 4326,
      "66</w>": 4327,
      "sở_thích</w>": 4328,
      "em_gái</w>": 4329,
      "D.</w>": 4330,
      "đê</w>": 4331,
      "FC</w>": 4332,
      "mong_đợi</w>": 4333,
      "Mục_tiêu</w>": 4334,
      "un": 4335,
      "bề_mặt</w>": 4336,
      "Tình_trạng</w>": 4337,
      "3D</w>": 4338,
      "ing</w>": 4339,
      "thu_mua</w>": 4340,
      "Buổi</w>": 4341,
      "bút</w>": 4342,
      "luồng</w>": 4343,
      "9.": 4344,
      "ngưỡng_mộ</w>": 4345,
      "Bu": 4346,
      "bất_ổn</w>": 4347,
      "bắt_cóc</w>": 4348,
      "bệnh_tật</w>": 4349,
      "cấp_uỷ</w>": 4350,
      "mã_lực</w>": 4351,
      "tị_nạn</w>": 4352,
      "tia</w>": 4353,
      "Ngân</w>": 4354,
      "Hồ_Ngọc_Hà</w>": 4355,
      "ella</w>": 4356,
      "nước_biển</w>": 4357,
      "Palestine</w>": 4358,
      "mái_tóc</w>": 4359,
      "nhậu</w>": 4360,
      "4%</w>": 4361,
      "tưởng_tượng</w>": 4362,
      "au": 4363,
      "Viên</w>": 4364,
      "gian</w>": 4365,
      "um": 4366,
      "ed</w>": 4367,
      "giáo</w>": 4368,
      "idae</w>": 4369,
      "bài_tập</w>": 4370,
      "88</w>": 4371,
      "Duy</w>": 4372,
      "3/": 4373,
      "bước_đầu</w>": 4374,
      "tiền_tệ</w>": 4375,
      "Chu_": 4376,
      "hết_mình</w>": 4377,
      "hàng_hải</w>": 4378,
      "Vương</w>": 4379,
      "a-": 4380,
      "đất_liền</w>": 4381,
      "Qatar</w>": 4382,
      "Trường_Giang</w>": 4383,
      "Toán</w>": 4384,
      "gian_lận</w>": 4385,
      "phụ_kiện</w>": 4386,
      "lặn</w>": 4387,
      "6%</w>": 4388,
      "cảnh_quan</w>": 4389,
      "Giấy</w>": 4390,
      "Cảnh</w>": 4391,
      "luộc</w>": 4392,
      "gia_hạn</w>": 4393,
      "Sơn_": 4394,
      "liệt_sĩ</w>": 4395,
      "Be": 4396,
      "no</w>": 4397,
      "Bảng</w>": 4398,
      "cảm_biến</w>": 4399,
      "mồ_hôi</w>": 4400,
      "ata</w>": 4401,
      "av": 4402,
      "để_ý</w>": 4403,
      "ngô</w>": 4404,
      "Nhất</w>": 4405,
      "Har": 4406,
      "me</w>": 4407,
      "ngoại_ngữ</w>": 4408,
      ".com</w>": 4409,
      "cốc</w>": 4410,
      "bỏng</w>": 4411,
      "nhà_thờ</w>": 4412,
      "Vẫn</w>": 4413,
      "trợ_cấp</w>": 4414,
      "tuyết</w>": 4415,
      "Hữu_": 4416,
      "phân_loại</w>": 4417,
      "1991</w>": 4418,
      "Giữa</w>": 4419,
      "Đại_biểu</w>": 4420,
      "ya</w>": 4421,
      "nghiệp</w>": 4422,
      "im</w>": 4423,
      "99</w>": 4424,
      "từ_chức</w>": 4425,
      "sinh_thái</w>": 4426,
      "59</w>": 4427,
      "Huyền</w>": 4428,
      "Lợi</w>": 4429,
      "cáp</w>": 4430,
      "5.": 4431,
      "4/": 4432,
      "kê_khai</w>": 4433,
      "thường_niên</w>": 4434,
      "tư_thế</w>": 4435,
      "quyết</w>": 4436,
      "60%</w>": 4437,
      "Tuyến</w>": 4438,
      "địa</w>": 4439,
      "Châu_": 4440,
      "đồng_thuận</w>": 4441,
      "Kiev</w>": 4442,
      "địch</w>": 4443,
      "po": 4444,
      "bar</w>": 4445,
      "lành</w>": 4446,
      "mô</w>": 4447,
      "Do": 4448,
      "Siêu</w>": 4449,
      "i-": 4450,
      "táo</w>": 4451,
      "triệu_tập</w>": 4452,
      "di</w>": 4453,
      "Sản_phẩm</w>": 4454,
      "bể</w>": 4455,
      "hoàn</w>": 4456,
      "qua_lại</w>": 4457,
      "tỷ_giá</w>": 4458,
      "ng-": 4459,
      "tự_tử</w>": 4460,
      "tò_mò</w>": 4461,
      "giới_tính</w>": 4462,
      "đạp</w>": 4463,
      "GB</w>": 4464,
      "Grab</w>": 4465,
      "chui</w>": 4466,
      "nghĩa_là</w>": 4467,
      "thủng</w>": 4468,
      "giọt</w>": 4469,
      "chào_đón</w>": 4470,
      "vang</w>": 4471,
      "8%</w>": 4472,
      "Tên</w>": 4473,
      "900</w>": 4474,
      "Phượng</w>": 4475,
      "iOS</w>": 4476,
      "bến_xe</w>": 4477,
      "buôn_lậu</w>": 4478,
      "khép</w>": 4479,
      "đẹp_mắt</w>": 4480,
      "dương</w>": 4481,
      "1-": 4482,
      "chịu_đựng</w>": 4483,
      "aceae</w>": 4484,
      "Đình_": 4485,
      "thấm</w>": 4486,
      "vật_thể</w>": 4487,
      "Chiến</w>": 4488,
      "Barack_Obama</w>": 4489,
      "ngành_nghề</w>": 4490,
      "CNN</w>": 4491,
      "Man": 4492,
      "Chồng</w>": 4493,
      "LG</w>": 4494,
      "1.500</w>": 4495,
      "điều_hoà</w>": 4496,
      "chuông</w>": 4497,
      "Sự_việc</w>": 4498,
      "Liên_Hợp_Quốc</w>": 4499,
      "giếng</w>": 4500,
      "yêu_mến</w>": 4501,
      "bỗng</w>": 4502,
      "Nguyễn_Ngọc_": 4503,
      "kim_ngạch</w>": 4504,
      "hoạ_sĩ</w>": 4505,
      "cây_trồng</w>": 4506,
      "Đối_tượng</w>": 4507,
      "Seoul</w>": 4508,
      "cho_dù</w>": 4509,
      "tự_chủ</w>": 4510,
      "vốn_điều_lệ</w>": 4511,
      "eb": 4512,
      "lồng</w>": 4513,
      "dải</w>": 4514,
      "KH</w>": 4515,
      "dầu_khí</w>": 4516,
      "Ăn</w>": 4517,
      "Toàn_bộ</w>": 4518,
      "dạy_học</w>": 4519,
      "tiềm_ẩn</w>": 4520,
      "hở</w>": 4521,
      "Công_Vinh</w>": 4522,
      "15/": 4523,
      "tập_hợp</w>": 4524,
      "th</w>": 4525,
      "gừng</w>": 4526,
      "hoang_mang</w>": 4527,
      "Tết_Nguyên_đán</w>": 4528,
      "bình_đẳng</w>": 4529,
      "Biên_phòng</w>": 4530,
      "sườn</w>": 4531,
      "thưa</w>": 4532,
      "hiệu_ứng</w>": 4533,
      "12/": 4534,
      "Đào_": 4535,
      "N.": 4536,
      "Thọ</w>": 4537,
      "Không_những</w>": 4538,
      "Công_viên</w>": 4539,
      "NLĐ</w>": 4540,
      "phân_bón</w>": 4541,
      "suy</w>": 4542,
      "nhà_thiết_kế</w>": 4543,
      "Tự</w>": 4544,
      "1980</w>": 4545,
      "khả_thi</w>": 4546,
      "ví</w>": 4547,
      "P.": 4548,
      "Trí</w>": 4549,
      "Điện_lực</w>": 4550,
      "lưu_giữ</w>": 4551,
      "cạn</w>": 4552,
      "Gu": 4553,
      "Phú_": 4554,
      "Daily_Mail</w>": 4555,
      "Sóc_Trăng</w>": 4556,
      "hài_hoà</w>": 4557,
      "những_ai</w>": 4558,
      "Sony</w>": 4559,
      "nuôi_dưỡng</w>": 4560,
      "ác</w>": 4561,
      "tự_xưng</w>": 4562,
      "ur": 4563,
      "71</w>": 4564,
      "An_toàn</w>": 4565,
      "trợ_lý</w>": 4566,
      "hoàng</w>": 4567,
      "đô</w>": 4568,
      "nảy_sinh</w>": 4569,
      "Ngành</w>": 4570,
      "mới_mẻ</w>": 4571,
      "Yên</w>": 4572,
      "Công_thương</w>": 4573,
      "hoãn</w>": 4574,
      "thương_tích</w>": 4575,
      "tuyển_thủ</w>": 4576,
      "Bệnh</w>": 4577,
      "phục</w>": 4578,
      "Mỹ_": 4579,
      "vinh_dự</w>": 4580,
      "ập</w>": 4581,
      "gác</w>": 4582,
      "thư_giãn</w>": 4583,
      "Chiến_tranh</w>": 4584,
      "vật_dụng</w>": 4585,
      "Vị</w>": 4586,
      "lên_đường</w>": 4587,
      "buôn</w>": 4588,
      "Máy_bay</w>": 4589,
      "BMW</w>": 4590,
      "Vòng</w>": 4591,
      "ẩn</w>": 4592,
      "PSG</w>": 4593,
      "B.</w>": 4594,
      "cài_đặt</w>": 4595,
      "khoang</w>": 4596,
      "mía</w>": 4597,
      "’</w>": 4598,
      "dân_tộc_thiểu_số</w>": 4599,
      "hoành_tráng</w>": 4600,
      "Tu": 4601,
      "1975</w>": 4602,
      "Si": 4603,
      "mi": 4604,
      "độ_phân_giải</w>": 4605,
      "Mỹ_Đình</w>": 4606,
      "thất_nghiệp</w>": 4607,
      "Bị_cáo</w>": 4608,
      "rải_rác</w>": 4609,
      "đồng_bằng</w>": 4610,
      "khai_trương</w>": 4611,
      "dỡ</w>": 4612,
      "quét</w>": 4613,
      "trọn_vẹn</w>": 4614,
      "Sử_dụng</w>": 4615,
      "van</w>": 4616,
      "BBC</w>": 4617,
      "Chuyên_gia</w>": 4618,
      "chăm_lo</w>": 4619,
      "6.": 4620,
      "Kon_Tum</w>": 4621,
      "đối_xử</w>": 4622,
      "thể</w>": 4623,
      "PTNT</w>": 4624,
      "ka</w>": 4625,
      "Bạc_Liêu</w>": 4626,
      "lên_án</w>": 4627,
      "_t": 4628,
      "nứt</w>": 4629,
      "ngắn_hạn</w>": 4630,
      "bắt_gặp</w>": 4631,
      "độc_quyền</w>": 4632,
      "Làng</w>": 4633,
      "ấm_áp</w>": 4634,
      "cồn</w>": 4635,
      "vứt</w>": 4636,
      "nhà_cung_cấp</w>": 4637,
      "8.": 4638,
      "Liệu</w>": 4639,
      "MTV</w>": 4640,
      "hô_hấp</w>": 4641,
      "đoàn_viên</w>": 4642,
      "Hoạt_động</w>": 4643,
      "Phút</w>": 4644,
      "Thuế</w>": 4645,
      "03</w>": 4646,
      "Tình</w>": 4647,
      "Yến</w>": 4648,
      "4,": 4649,
      "mì</w>": 4650,
      "đổ_bộ</w>": 4651,
      "7/": 4652,
      "tiểu_thuyết</w>": 4653,
      "chứng_cứ</w>": 4654,
      "Bến_Tre</w>": 4655,
      "CA</w>": 4656,
      "Đoạn</w>": 4657,
      "Từng</w>": 4658,
      "FDI</w>": 4659,
      "ig": 4660,
      "Mấy</w>": 4661,
      "Vĩnh_Long</w>": 4662,
      "bất_hợp_pháp</w>": 4663,
      "kẹt</w>": 4664,
      "Tổng_Công_ty</w>": 4665,
      "82</w>": 4666,
      "Online</w>": 4667,
      "Kết_thúc</w>": 4668,
      "rồng</w>": 4669,
      "Phố</w>": 4670,
      "tồi_tệ</w>": 4671,
      "bài_toán</w>": 4672,
      "Hiện_trường</w>": 4673,
      "triển_vọng</w>": 4674,
      "ec": 4675,
      "điều_động</w>": 4676,
      "La_Liga</w>": 4677,
      "công_sức</w>": 4678,
      "Biết</w>": 4679,
      "p_": 4680,
      "Phạm_Thị_": 4681,
      "áp_đặt</w>": 4682,
      "chữ_ký</w>": 4683,
      "09": 4684,
      "TQ</w>": 4685,
      "tim_mạch</w>": 4686,
      "92</w>": 4687,
      "scandal</w>": 4688,
      "8/": 4689,
      "nhặt</w>": 4690,
      "hoàn_chỉnh</w>": 4691,
      "hu": 4692,
      "Libya</w>": 4693,
      "Điện</w>": 4694,
      "lốc</w>": 4695,
      "Sáu</w>": 4696,
      "dại</w>": 4697,
      "toán</w>": 4698,
      "ngưng</w>": 4699,
      "Ninh</w>": 4700,
      "hoá_học</w>": 4701,
      "61</w>": 4702,
      "gối</w>": 4703,
      "Go": 4704,
      "yếu_kém</w>": 4705,
      "Colombia</w>": 4706,
      "76</w>": 4707,
      "Cảng</w>": 4708,
      "6.000</w>": 4709,
      "NH</w>": 4710,
      "nhà_thơ</w>": 4711,
      "Món</w>": 4712,
      "15%</w>": 4713,
      "_P": 4714,
      "đấu_trường</w>": 4715,
      "cổ_phần_hoá</w>": 4716,
      "đun</w>": 4717,
      "út</w>": 4718,
      "lật</w>": 4719,
      "rắc_rối</w>": 4720,
      "nông</w>": 4721,
      "oan</w>": 4722,
      "mũ</w>": 4723,
      "xào</w>": 4724,
      "giàn</w>": 4725,
      "tương_tác</w>": 4726,
      "Châu_Á</w>": 4727,
      "Điện_Biên</w>": 4728,
      "nhường</w>": 4729,
      "lực_lượng_vũ_trang</w>": 4730,
      "cố_vấn</w>": 4731,
      "chiên</w>": 4732,
      "Hoàng_Mai</w>": 4733,
      "Linh_": 4734,
      "az": 4735,
      "mùng</w>": 4736,
      "xơ</w>": 4737,
      "Rooney</w>": 4738,
      "thủ_tướng</w>": 4739,
      "New_Zealand</w>": 4740,
      "bản_chất</w>": 4741,
      "and": 4742,
      "1,2</w>": 4743,
      "tám</w>": 4744,
      "Lượng</w>": 4745,
      "giản_dị</w>": 4746,
      "tiếp_thu</w>": 4747,
      "Vladimir_Putin</w>": 4748,
      "ưa_chuộng</w>": 4749,
      "Dù_vậy</w>": 4750,
      "Đức_": 4751,
      "ổn</w>": 4752,
      "05</w>": 4753,
      "36,": 4754,
      "2-1</w>": 4755,
      "bản_án</w>": 4756,
      "công_vụ</w>": 4757,
      "7.": 4758,
      "xông</w>": 4759,
      "me": 4760,
      "bảo_tàng</w>": 4761,
      "khắc</w>": 4762,
      "95</w>": 4763,
      "t-": 4764,
      "cán</w>": 4765,
      "thuỷ</w>": 4766,
      "sạch_sẽ</w>": 4767,
      "kiểm_toán</w>": 4768,
      "Khoản</w>": 4769,
      "sản</w>": 4770,
      "kiềm_chế</w>": 4771,
      "Tiếp_tục</w>": 4772,
      "lên_ngôi</w>": 4773,
      "nạp</w>": 4774,
      "thoả_mãn</w>": 4775,
      "nhân_đạo</w>": 4776,
      "phái</w>": 4777,
      "Đồng_chí</w>": 4778,
      "thể_loại</w>": 4779,
      "rò_rỉ</w>": 4780,
      "xâm_hại</w>": 4781,
      "73</w>": 4782,
      "CTCP</w>": 4783,
      "lan_toả</w>": 4784,
      "gợi_ý</w>": 4785,
      "Con": 4786,
      "ae</w>": 4787,
      "nghệ_nhân</w>": 4788,
      "3G</w>": 4789,
      "ngăn_cản</w>": 4790,
      "dung_lượng</w>": 4791,
      "thang</w>": 4792,
      "khoác_áo</w>": 4793,
      "thủ_công</w>": 4794,
      "sơ_sinh</w>": 4795,
      "trầm_trọng</w>": 4796,
      "mưa_lũ</w>": 4797,
      "thuận_tiện</w>": 4798,
      "86</w>": 4799,
      "69</w>": 4800,
      "Thanh_Xuân</w>": 4801,
      "Hoàng_gia</w>": 4802,
      "lau</w>": 4803,
      "thể_lực</w>": 4804,
      "Vùng</w>": 4805,
      "khám_chữa</w>": 4806,
      "Huyện</w>": 4807,
      "phim_truyền_hình</w>": 4808,
      "đột_biến</w>": 4809,
      "thoáng</w>": 4810,
      "điều_khoản</w>": 4811,
      "Bảy</w>": 4812,
      "hưởng_ứng</w>": 4813,
      "khám_nghiệm</w>": 4814,
      "chất_độc</w>": 4815,
      "+": 4816,
      "gắn_kết</w>": 4817,
      "As": 4818,
      "vô</w>": 4819,
      "6,": 4820,
      "diễn_tập</w>": 4821,
      "tư_liệu</w>": 4822,
      "nhện</w>": 4823,
      "ne</w>": 4824,
      "kiến_tạo</w>": 4825,
      "Ti": 4826,
      "é": 4827,
      "khe</w>": 4828,
      "sắc_đẹp</w>": 4829,
      "lắp_ráp</w>": 4830,
      "tối_cao</w>": 4831,
      "Công_trình</w>": 4832,
      "ra_lệnh</w>": 4833,
      "Thời</w>": 4834,
      "11/": 4835,
      "=</w>": 4836,
      "sĩ_quan</w>": 4837,
      "hẹp</w>": 4838,
      "Hương_": 4839,
      "sai_sót</w>": 4840,
      "thánh</w>": 4841,
      "chủ_nghĩa</w>": 4842,
      "mật_ong</w>": 4843,
      "_D": 4844,
      "Ngược_lại</w>": 4845,
      "cương_vị</w>": 4846,
      "công_thức</w>": 4847,
      "Thông</w>": 4848,
      "chữa_trị</w>": 4849,
      "hố</w>": 4850,
      "Cor": 4851,
      "mệnh_danh</w>": 4852,
      "chủ_quan</w>": 4853,
      "chất_béo</w>": 4854,
      "góp_ý</w>": 4855,
      "hiệu_trưởng</w>": 4856,
      "thủ_lĩnh</w>": 4857,
      "tâm_trạng</w>": 4858,
      "thu_gom</w>": 4859,
      "rùa</w>": 4860,
      "hành_nghề</w>": 4861,
      "tự_ý</w>": 4862,
      "Báo_chí</w>": 4863,
      "lâm</w>": 4864,
      "tận_hưởng</w>": 4865,
      "Nguyễn_Đức_": 4866,
      "25%</w>": 4867,
      "KCN</w>": 4868,
      "phán_quyết</w>": 4869,
      "Tiểu_học</w>": 4870,
      "trình_báo</w>": 4871,
      "chủ_chốt</w>": 4872,
      "kháng_chiến</w>": 4873,
      "77</w>": 4874,
      "anh_trai</w>": 4875,
      "hi_vọng</w>": 4876,
      "ôn</w>": 4877,
      "tiếng_nói</w>": 4878,
      "cổ_điển</w>": 4879,
      "định_kỳ</w>": 4880,
      "ăn_mặc</w>": 4881,
      "bẫy</w>": 4882,
      "hình_phạt</w>": 4883,
      "9%</w>": 4884,
      "tus</w>": 4885,
      "bùn</w>": 4886,
      "láng_giềng</w>": 4887,
      "rộng_lớn</w>": 4888,
      "mười</w>": 4889,
      "Com": 4890,
      "chứng_chỉ</w>": 4891,
      "gặp_mặt</w>": 4892,
      "ban_đêm</w>": 4893,
      "trùng</w>": 4894,
      "âm_mưu</w>": 4895,
      "M.": 4896,
      "danh_dự</w>": 4897,
      "2030</w>": 4898,
      "bi</w>": 4899,
      "Mon": 4900,
      "võ</w>": 4901,
      "con_cháu</w>": 4902,
      "ấn</w>": 4903,
      "set</w>": 4904,
      "Mạnh</w>": 4905,
      "nhân_chứng</w>": 4906,
      "c_": 4907,
      "gh": 4908,
      "nước_mắm</w>": 4909,
      "dự_toán</w>": 4910,
      "thắp</w>": 4911,
      "per": 4912,
      "mỹ_nhân</w>": 4913,
      "Nguyễn_Hữu_": 4914,
      "khái_niệm</w>": 4915,
      "ley</w>": 4916,
      "19": 4917,
      "còi</w>": 4918,
      "phê_bình</w>": 4919,
      "đầu_ra</w>": 4920,
      "Cựu</w>": 4921,
      "Mới</w>": 4922,
      "4.0</w>": 4923,
      "dễ_thương</w>": 4924,
      "tâm_hồn</w>": 4925,
      "trụ_cột</w>": 4926,
      "Thiết_kế</w>": 4927,
      "uỷ_quyền</w>": 4928,
      "_T": 4929,
      "ers</w>": 4930,
      "kê</w>": 4931,
      "protein</w>": 4932,
      "ic</w>": 4933,
      "Long_Biên</w>": 4934,
      "NSND</w>": 4935,
      "Ba_Đình</w>": 4936,
      "2/": 4937,
      "vợ_con</w>": 4938,
      "phân_bố</w>": 4939,
      "màn_ảnh</w>": 4940,
      "kỹ_lưỡng</w>": 4941,
      "ou": 4942,
      "môi_giới</w>": 4943,
      "Bình_Phước</w>": 4944,
      "cận</w>": 4945,
      "vũ_trang</w>": 4946,
      "Pi": 4947,
      "30/": 4948,
      "nhân_tố</w>": 4949,
      "Ru": 4950,
      "cháo</w>": 4951,
      "tiểu_bang</w>": 4952,
      "lo_sợ</w>": 4953,
      "thửa</w>": 4954,
      "ay</w>": 4955,
      "rõ_rệt</w>": 4956,
      "Phi</w>": 4957,
      "Gió</w>": 4958,
      "Hollywood</w>": 4959,
      "chén</w>": 4960,
      "Al-": 4961,
      "anh_chị</w>": 4962,
      "1000</w>": 4963,
      "Cầu_thủ</w>": 4964,
      "lão</w>": 4965,
      "bùng_phát</w>": 4966,
      "op": 4967,
      "chắn</w>": 4968,
      "Đan_Mạch</w>": 4969,
      "lời_nói</w>": 4970,
      "ANTĐ</w>": 4971,
      "máy_ảnh</w>": 4972,
      "bình_yên</w>": 4973,
      "lấn_chiếm</w>": 4974,
      "il</w>": 4975,
      "CT</w>": 4976,
      "Duy_": 4977,
      "Chẳng</w>": 4978,
      "tốn_kém</w>": 4979,
      "04</w>": 4980,
      "79</w>": 4981,
      "thìa</w>": 4982,
      "Máy</w>": 4983,
      "luyện_tập</w>": 4984,
      "ang": 4985,
      "sứ</w>": 4986,
      "thiếu_nhi</w>": 4987,
      "Ki": 4988,
      "Mu": 4989,
      "ngoài_trời</w>": 4990,
      "hé</w>": 4991,
      "Hoàn_vũ</w>": 4992,
      "gốm</w>": 4993,
      "Te": 4994,
      "ướp</w>": 4995,
      "đùa</w>": 4996,
      "lưỡi</w>": 4997,
      "Khanh</w>": 4998,
      "Phát</w>": 4999,
      "Tây_Ninh</w>": 5000,
      "má</w>": 5001,
      "SV</w>": 5002,
      "25": 5003,
      "Hai_Bà_Trưng</w>": 5004,
      "Thầy</w>": 5005,
      "Lee</w>": 5006,
      "74</w>": 5007,
      "EVN</w>": 5008,
      "tên_lửa_đạn_đạo</w>": 5009,
      "Saudi_Arabia</w>": 5010,
      "kiểm_định</w>": 5011,
      "Tam_": 5012,
      "Thiên</w>": 5013,
      "báo_giới</w>": 5014,
      "chán</w>": 5015,
      "viện_trợ</w>": 5016,
      "tầng_lớp</w>": 5017,
      "mâm</w>": 5018,
      "Ad": 5019,
      "1988</w>": 5020,
      "nhãn_hiệu</w>": 5021,
      "Đàm_Vĩnh_Hưng</w>": 5022,
      "Công_đoàn</w>": 5023,
      "Pa": 5024,
      "nhiễm_trùng</w>": 5025,
      "riêng_tư</w>": 5026,
      "Thống_kê</w>": 5027,
      "ate</w>": 5028,
      "sơ_tán</w>": 5029,
      "tâm_huyết</w>": 5030,
      "vào_vai</w>": 5031,
      "Giống</w>": 5032,
      "chăm_chỉ</w>": 5033,
      "thần_tượng</w>": 5034,
      "chủ_lực</w>": 5035,
      "đúng_đắn</w>": 5036,
      "đến_nơi</w>": 5037,
      "tưới</w>": 5038,
      "bí_quyết</w>": 5039,
      "Tiên</w>": 5040,
      "lý_thuyết</w>": 5041,
      "2-0</w>": 5042,
      "Thủ_Đức</w>": 5043,
      "V.</w>": 5044,
      "1989</w>": 5045,
      "kim_cương</w>": 5046,
      "Thay_vì</w>": 5047,
      "mệt</w>": 5048,
      "Old_Trafford</w>": 5049,
      "5,": 5050,
      "bầu_trời</w>": 5051,
      "ưu_thế</w>": 5052,
      "9/": 5053,
      "RAM</w>": 5054,
      "điệu</w>": 5055,
      "Chàng</w>": 5056,
      "tắc</w>": 5057,
      "axit</w>": 5058,
      "hoang_dã</w>": 5059,
      "đội_trưởng</w>": 5060,
      "lượt_đi</w>": 5061,
      "pi": 5062,
      "hiện_thực</w>": 5063,
      "Crimea</w>": 5064,
      "khoáng_sản</w>": 5065,
      "tư_pháp</w>": 5066,
      "Thiếu_tướng</w>": 5067,
      "Pro": 5068,
      "cải</w>": 5069,
      "golf</w>": 5070,
      "coi_trọng</w>": 5071,
      "Tạp_chí</w>": 5072,
      "thảo</w>": 5073,
      "Đông_Nam</w>": 5074,
      "con_em</w>": 5075,
      "Dòng</w>": 5076,
      "Thiện</w>": 5077,
      "kiểm_điểm</w>": 5078,
      "đa_khoa</w>": 5079,
      "Khoa_": 5080,
      "Thí_sinh</w>": 5081,
      "em_trai</w>": 5082,
      "xám</w>": 5083,
      "3,5</w>": 5084,
      "con": 5085,
      "ca_hát</w>": 5086,
      "đoàn_thể</w>": 5087,
      "Cận_Bình</w>": 5088,
      "trực</w>": 5089,
      "Trinh</w>": 5090,
      "ts</w>": 5091,
      "Quy_định</w>": 5092,
      "hiện_đại_hoá</w>": 5093,
      "84</w>": 5094,
      "khủng_khiếp</w>": 5095,
      "sụt_giảm</w>": 5096,
      "ani</w>": 5097,
      "Hoài_Linh</w>": 5098,
      "83</w>": 5099,
      "Không_thể</w>": 5100,
      "tín_nhiệm</w>": 5101,
      "đại_hội</w>": 5102,
      "Vợ_chồng</w>": 5103,
      "giải_trình</w>": 5104,
      "Ca_sĩ</w>": 5105,
      "quả_tang</w>": 5106,
      "Nghệ_thuật</w>": 5107,
      "nhà_nghỉ</w>": 5108,
      "cu": 5109,
      "Bộ_luật</w>": 5110,
      "nhôm</w>": 5111,
      "ngoại_tình</w>": 5112,
      "Bố</w>": 5113,
      "chỉnh_sửa</w>": 5114,
      "chăm</w>": 5115,
      "nghệ</w>": 5116,
      "động_tác</w>": 5117,
      "Lao_Động</w>": 5118,
      "ròng</w>": 5119,
      "Mc": 5120,
      "Sơn_Tùng</w>": 5121,
      "ko": 5122,
      "dự_bị</w>": 5123,
      "thị_trường_chứng_khoán</w>": 5124,
      "Rõ_ràng</w>": 5125,
      "sư_phạm</w>": 5126,
      "Lấy</w>": 5127,
      "Ri": 5128,
      "Instagram</w>": 5129,
      "tử</w>": 5130,
      "hoa_hồng</w>": 5131,
      "ah": 5132,
      "cố_ý</w>": 5133,
      "địa_hình</w>": 5134,
      "lai</w>": 5135,
      "Thuý</w>": 5136,
      "Tỷ_lệ</w>": 5137,
      "kích_hoạt</w>": 5138,
      "vú</w>": 5139,
      "quy_tắc</w>": 5140,
      "dây_chuyền</w>": 5141,
      "TH": 5142,
      "cưng</w>": 5143,
      "Thượng</w>": 5144,
      "giới_chức</w>": 5145,
      "YouTube</w>": 5146,
      "ngọc</w>": 5147,
      "sa_thải</w>": 5148,
      "Chứng_khoán</w>": 5149,
      "Kar": 5150,
      "_K": 5151,
      "vừa_rồi</w>": 5152,
      "mặt_nạ</w>": 5153,
      "công_chúa</w>": 5154,
      "XII</w>": 5155,
      "vĩ_đại</w>": 5156,
      "cư_trú</w>": 5157,
      "xay</w>": 5158,
      "mơ_ước</w>": 5159,
      "phát_ngôn</w>": 5160,
      "hữu_ích</w>": 5161,
      "Pe": 5162,
      "vắng_mặt</w>": 5163,
      "làng_nghề</w>": 5164,
      "Công_việc</w>": 5165,
      "đánh_bạc</w>": 5166,
      "nhiệt_đới</w>": 5167,
      "cổ_truyền</w>": 5168,
      "kế_toán</w>": 5169,
      "QH</w>": 5170,
      "Cấp</w>": 5171,
      "ru": 5172,
      "sống_sót</w>": 5173,
      "Chiến_lược</w>": 5174,
      "kháng_sinh</w>": 5175,
      "1.0": 5176,
      "mạo_hiểm</w>": 5177,
      "trước_hết</w>": 5178,
      "ĐBSCL</w>": 5179,
      "nắp</w>": 5180,
      "lún</w>": 5181,
      "300.000</w>": 5182,
      "ngày_mai</w>": 5183,
      "PGS</w>": 5184,
      "VND</w>": 5185,
      "Nguyễn_.</w>": 5186,
      "cứu_trợ</w>": 5187,
      "78</w>": 5188,
      "Hợp_tác</w>": 5189,
      "làn_sóng</w>": 5190,
      "vực</w>": 5191,
      "cỗ</w>": 5192,
      "chăn</w>": 5193,
      "Đà</w>": 5194,
      "Khang</w>": 5195,
      "nhà_ga</w>": 5196,
      "Phúc_": 5197,
      "AC</w>": 5198,
      "muỗi</w>": 5199,
      "bận</w>": 5200,
      "địa_phận</w>": 5201,
      "thềm</w>": 5202,
      "9X</w>": 5203,
      "gian_hàng</w>": 5204,
      "hoạ_tiết</w>": 5205,
      "hàng_rào</w>": 5206,
      "duyệt</w>": 5207,
      "danh_tính</w>": 5208,
      "Đang</w>": 5209,
      "vừa_phải</w>": 5210,
      "Tân_Sơn_Nhất</w>": 5211,
      "hồn</w>": 5212,
      "w</w>": 5213,
      "sư</w>": 5214,
      "gas</w>": 5215,
      "Nhà_báo</w>": 5216,
      "Cháu</w>": 5217,
      "City</w>": 5218,
      "gia_cầm</w>": 5219,
      "mờ</w>": 5220,
      "doạ</w>": 5221,
      "hoa_quả</w>": 5222,
      "rước</w>": 5223,
      "thủ_thành</w>": 5224,
      "đèo</w>": 5225,
      "XH</w>": 5226,
      "giao_hữu</w>": 5227,
      "triều</w>": 5228,
      "xếp_hàng</w>": 5229,
      "5-": 5230,
      "vũ_khí_hạt_nhân</w>": 5231,
      "FA</w>": 5232,
      "Ninh_Thuận</w>": 5233,
      "PVN</w>": 5234,
      "Giọng</w>": 5235,
      "vạch</w>": 5236,
      "vi</w>": 5237,
      "làm_quen</w>": 5238,
      "kiên_trì</w>": 5239,
      "sexy</w>": 5240,
      "ve</w>": 5241,
      "ATGT</w>": 5242,
      "PGS.TS</w>": 5243,
      "Căn_cứ</w>": 5244,
      "n-": 5245,
      "lõi</w>": 5246,
      "nhân_văn</w>": 5247,
      "cầm_quân</w>": 5248,
      "tủ_lạnh</w>": 5249,
      "Mời</w>": 5250,
      "gầm</w>": 5251,
      "ra_quân</w>": 5252,
      "Hậu_Giang</w>": 5253,
      "al_": 5254,
      "danh</w>": 5255,
      "khuôn_viên</w>": 5256,
      "phê_chuẩn</w>": 5257,
      "Cụ</w>": 5258,
      "nhân_dịp</w>": 5259,
      ".vn</w>": 5260,
      "xâm_phạm</w>": 5261,
      "mày</w>": 5262,
      "ard</w>": 5263,
      "vinh_danh</w>": 5264,
      "car": 5265,
      "lốp</w>": 5266,
      "quốc_tịch</w>": 5267,
      "kháng</w>": 5268,
      "thảm</w>": 5269,
      "Trẻ</w>": 5270,
      "Học</w>": 5271,
      "liên_bang</w>": 5272,
      "gen</w>": 5273,
      "người_tình</w>": 5274,
      "Bayern</w>": 5275,
      "mar": 5276,
      "trung_thành</w>": 5277,
      "Dự_thảo</w>": 5278,
      "Khánh_": 5279,
      "quan_ngại</w>": 5280,
      "tô</w>": 5281,
      "lăn</w>": 5282,
      "tức_giận</w>": 5283,
      "đơn_thuần</w>": 5284,
      "thành_quả</w>": 5285,
      "Trang_": 5286,
      "Mor": 5287,
      "Bởi_vậy</w>": 5288,
      "thăm_hỏi</w>": 5289,
      "tâm_thần</w>": 5290,
      "Lai_Châu</w>": 5291,
      "bản_sắc</w>": 5292,
      "siết</w>": 5293,
      "tích</w>": 5294,
      "du_học</w>": 5295,
      "vặt</w>": 5296,
      "cài</w>": 5297,
      "thị</w>": 5298,
      "Jo": 5299,
      "điều_tiết</w>": 5300,
      "mu": 5301,
      "Lam</w>": 5302,
      "cò</w>": 5303,
      "08</w>": 5304,
      "BĐBP</w>": 5305,
      "sinh_sản</w>": 5306,
      "1982</w>": 5307,
      "IV</w>": 5308,
      "Phước</w>": 5309,
      "cong</w>": 5310,
      "ak</w>": 5311,
      "tín_đồ</w>": 5312,
      "dũng_cảm</w>": 5313,
      "phúc_thẩm</w>": 5314,
      "30": 5315,
      "góc_độ</w>": 5316,
      "chiều_tối</w>": 5317,
      "tội_danh</w>": 5318,
      "cà_chua</w>": 5319,
      "thiện</w>": 5320,
      "lon</w>": 5321,
      "chóng_mặt</w>": 5322,
      "Nhung</w>": 5323,
      "khắc_nghiệt</w>": 5324,
      "87</w>": 5325,
      "tiểu_đường</w>": 5326,
      "11.": 5327,
      "cao_tuổi</w>": 5328,
      "be": 5329,
      "tạ</w>": 5330,
      "Cửu_Long</w>": 5331,
      "dưa</w>": 5332,
      "ruồi</w>": 5333,
      "10.": 5334,
      "TH</w>": 5335,
      "Ban_Chấp_hành</w>": 5336,
      "Bác_Hồ</w>": 5337,
      "Ke": 5338,
      "cô_đơn</w>": 5339,
      "Nhật_": 5340,
      "nhà_vệ_sinh</w>": 5341,
      "Tiểu_": 5342,
      "HD</w>": 5343,
      "chua</w>": 5344,
      "1-1</w>": 5345,
      "Miền</w>": 5346,
      "gu": 5347,
      "chiến_đấu_cơ</w>": 5348,
      "ván</w>": 5349,
      "liên_ngành</w>": 5350,
      "der</w>": 5351,
      "in_": 5352,
      "ri</w>": 5353,
      "ống_kính</w>": 5354,
      "pháo_hoa</w>": 5355,
      "Thông_qua</w>": 5356,
      "ơn</w>": 5357,
      "TT": 5358,
      "cất_cánh</w>": 5359,
      "1986</w>": 5360,
      "Miura</w>": 5361,
      "tử_cung</w>": 5362,
      "Nạn_nhân</w>": 5363,
      "Sal": 5364,
      "24": 5365,
      "Tiền_Phong</w>": 5366,
      "Hồ_": 5367,
      "sổ_đỏ</w>": 5368,
      "En": 5369,
      "bộ_đội</w>": 5370,
      "màng</w>": 5371,
      "one</w>": 5372,
      "bơ</w>": 5373,
      "Danh_sách</w>": 5374,
      "tước</w>": 5375,
      "Chile</w>": 5376,
      "luyện</w>": 5377,
      "giấc_ngủ</w>": 5378,
      "phân_bổ</w>": 5379,
      "đa_phần</w>": 5380,
      "23": 5381,
      "Manchester_United</w>": 5382,
      "rào_cản</w>": 5383,
      "lan_truyền</w>": 5384,
      "40.000</w>": 5385,
      "cũng_nên</w>": 5386,
      "bộ_môn</w>": 5387,
      "dị_ứng</w>": 5388,
      "quầy</w>": 5389,
      "Tăng_cường</w>": 5390,
      "Dầu_khí</w>": 5391,
      "Hạ</w>": 5392,
      "Chuyến</w>": 5393,
      "Mal": 5394,
      "Per": 5395,
      "trẻ_con</w>": 5396,
      "siêu_mẫu</w>": 5397,
      "Thừa_Thiên</w>": 5398,
      "loại_trừ</w>": 5399,
      "đường_ống</w>": 5400,
      "Biển_Đông</w>": 5401,
      "W</w>": 5402,
      "thông_tấn</w>": 5403,
      "khung_thành</w>": 5404,
      "Hiến_pháp</w>": 5405,
      "thủ_đoạn</w>": 5406,
      "Jong-un</w>": 5407,
      "bất</w>": 5408,
      "đảm_nhiệm</w>": 5409,
      "ngày_đêm</w>": 5410,
      "chốn</w>": 5411,
      "Biên_Hoà</w>": 5412,
      "thèm</w>": 5413,
      "hội_viên</w>": 5414,
      "giảng</w>": 5415,
      "vách</w>": 5416,
      "7.000</w>": 5417,
      "ki</w>": 5418,
      "20/": 5419,
      "văn_nghệ</w>": 5420,
      "Nhằm</w>": 5421,
      "vĩ_mô</w>": 5422,
      "gìn_giữ</w>": 5423,
      "tán</w>": 5424,
      "mặt_nước</w>": 5425,
      "kề</w>": 5426,
      "Hiển</w>": 5427,
      "nghệ_sỹ</w>": 5428,
      "ghi_hình</w>": 5429,
      "S.</w>": 5430,
      "K.</w>": 5431,
      "Khách</w>": 5432,
      "bất_đồng</w>": 5433,
      "giúp_việc</w>": 5434,
      "nhà_phân_tích</w>": 5435,
      "Đánh_giá</w>": 5436,
      "tổn_thất</w>": 5437,
      "phối</w>": 5438,
      "thể_chế</w>": 5439,
      "san</w>": 5440,
      "Nằm</w>": 5441,
      "81</w>": 5442,
      "xã_hội_hoá</w>": 5443,
      "Cúc</w>": 5444,
      "Sư_phạm</w>": 5445,
      "kẻ_thù</w>": 5446,
      "st": 5447,
      "Ab": 5448,
      "dần_dần</w>": 5449,
      "chuyên_đề</w>": 5450,
      "mịn</w>": 5451,
      "ứng</w>": 5452,
      "ý_chí</w>": 5453,
      "Ngoại_hạng</w>": 5454,
      "Thế_": 5455,
      "sưng</w>": 5456,
      "định_giá</w>": 5457,
      "350</w>": 5458,
      "cơ_động</w>": 5459,
      "ồn</w>": 5460,
      "vân</w>": 5461,
      "xinh</w>": 5462,
      "Hán</w>": 5463,
      "bế_tắc</w>": 5464,
      "TW</w>": 5465,
      "truy</w>": 5466,
      "khiêm_tốn</w>": 5467,
      "tích_luỹ</w>": 5468,
      "tháo</w>": 5469,
      "Chùa</w>": 5470,
      "cãi</w>": 5471,
      "khởi_kiện</w>": 5472,
      "cấp_độ</w>": 5473,
      "go": 5474,
      "hứng</w>": 5475,
      "Huệ</w>": 5476,
      "UNESCO</w>": 5477,
      "rẽ</w>": 5478,
      "họng</w>": 5479,
      "A.": 5480,
      "bất_lợi</w>": 5481,
      "phong_thuỷ</w>": 5482,
      "Đào</w>": 5483,
      "15.000</w>": 5484,
      "hái</w>": 5485,
      "Hoá</w>": 5486,
      "8.000</w>": 5487,
      "bước_tiến</w>": 5488,
      "cho_nên</w>": 5489,
      "xổ_số</w>": 5490,
      "cuộc_gọi</w>": 5491,
      "Sputnik</w>": 5492,
      "Thông_thường</w>": 5493,
      "Phật_giáo</w>": 5494,
      "1/3</w>": 5495,
      "lỏng</w>": 5496,
      "tháo_dỡ</w>": 5497,
      "Ku": 5498,
      "Amazon</w>": 5499,
      "nhận_lời</w>": 5500,
      "pro": 5501,
      "ber": 5502,
      "nấu_ăn</w>": 5503,
      "sụp_đổ</w>": 5504,
      "cao_tầng</w>": 5505,
      "đầu_bảng</w>": 5506,
      "Nam_Bộ</w>": 5507,
      "cầm_quyền</w>": 5508,
      "thầy_giáo</w>": 5509,
      "người_phát_ngôn</w>": 5510,
      "89</w>": 5511,
      "3-": 5512,
      "buông</w>": 5513,
      "nén</w>": 5514,
      "Tin_tức</w>": 5515,
      "ko</w>": 5516,
      "kiểu_dáng</w>": 5517,
      "thi_tuyển</w>": 5518,
      "tang_vật</w>": 5519,
      "ngữ</w>": 5520,
      "trong_sáng</w>": 5521,
      "Tuần</w>": 5522,
      "Kurd</w>": 5523,
      "Tuyên_bố</w>": 5524,
      "DL</w>": 5525,
      "ce</w>": 5526,
      "xoáy</w>": 5527,
      "ốm</w>": 5528,
      "nhận_diện</w>": 5529,
      "cập</w>": 5530,
      "A-": 5531,
      "lưu_niệm</w>": 5532,
      "bún</w>": 5533,
      "trầm_cảm</w>": 5534,
      "Oscar</w>": 5535,
      "USS</w>": 5536,
      "biên</w>": 5537,
      "tạo_hình</w>": 5538,
      "tivi</w>": 5539,
      "VN": 5540,
      "lớn_tuổi</w>": 5541,
      "Hoà_": 5542,
      "1987</w>": 5543,
      "sân_vận_động</w>": 5544,
      "San": 5545,
      "Vân_": 5546,
      "HTC</w>": 5547,
      "Nữ_hoàng</w>": 5548,
      "gia_súc</w>": 5549,
      "Khác</w>": 5550,
      "nho</w>": 5551,
      "suy_thoái</w>": 5552,
      "Nghệ</w>": 5553,
      "vớt</w>": 5554,
      "khía_cạnh</w>": 5555,
      "tuyển_chọn</w>": 5556,
      "00": 5557,
      "sỏi</w>": 5558,
      "nước_ngọt</w>": 5559,
      "Xuân_Trường</w>": 5560,
      "bảo_dưỡng</w>": 5561,
      "Yên_": 5562,
      "ngỡ_ngàng</w>": 5563,
      "đồng_tính</w>": 5564,
      "_V": 5565,
      "lề</w>": 5566,
      "1970</w>": 5567,
      "web</w>": 5568,
      "Bayern_Munich</w>": 5569,
      "Intel</w>": 5570,
      "110</w>": 5571,
      "Đô_thị</w>": 5572,
      "xinh_xắn</w>": 5573,
      "Pháp_luật</w>": 5574,
      "tiên_phong</w>": 5575,
      "alis</w>": 5576,
      "Đền</w>": 5577,
      "Giáng_sinh</w>": 5578,
      "muỗng</w>": 5579,
      "biến_chứng</w>": 5580,
      "xoá_bỏ</w>": 5581,
      "tất_nhiên</w>": 5582,
      "Thịt</w>": 5583,
      "linh_kiện</w>": 5584,
      "Thạch_": 5585,
      "Thay</w>": 5586,
      "nhà_chức_trách</w>": 5587,
      "91</w>": 5588,
      "Xanh</w>": 5589,
      "Sinh_viên</w>": 5590,
      "Thi</w>": 5591,
      "cuốn_hút</w>": 5592,
      "lưu_lượng</w>": 5593,
      "cấu_hình</w>": 5594,
      "bắt_mắt</w>": 5595,
      "chảo</w>": 5596,
      "sơ_bộ</w>": 5597,
      "táo_bạo</w>": 5598,
      "tưởng_niệm</w>": 5599,
      "Vài</w>": 5600,
      "đau_khổ</w>": 5601,
      "Tiến_": 5602,
      "kiến</w>": 5603,
      "rong</w>": 5604,
      "2-": 5605,
      "bê_bối</w>": 5606,
      "Tuấn_": 5607,
      "sinh_vật</w>": 5608,
      "soạn_thảo</w>": 5609,
      "Kỳ_Duyên</w>": 5610,
      "chấn_chỉnh</w>": 5611,
      "Ni": 5612,
      "ini</w>": 5613,
      "nồng_độ</w>": 5614,
      "thuỷ_lợi</w>": 5615,
      "hiệp_định</w>": 5616,
      "Đơn_vị</w>": 5617,
      "hàm</w>": 5618,
      "công_cuộc</w>": 5619,
      "thoái</w>": 5620,
      "xoắn</w>": 5621,
      "93</w>": 5622,
      "lâu_nay</w>": 5623,
      "mại_dâm</w>": 5624,
      "on_": 5625,
      "hội_đàm</w>": 5626,
      "hiện_vật</w>": 5627,
      "thác</w>": 5628,
      "Diễn_viên</w>": 5629,
      "CAND</w>": 5630,
      "Định</w>": 5631,
      "V.League</w>": 5632,
      "rạng_rỡ</w>": 5633,
      "nhạt</w>": 5634,
      "Nghệ_sĩ</w>": 5635,
      "ĐBQH</w>": 5636,
      "Phát_hiện</w>": 5637,
      "đặt_chân</w>": 5638,
      "phá_hoại</w>": 5639,
      "tài_tử</w>": 5640,
      "Bốn</w>": 5641,
      "tho": 5642,
      "V.": 5643,
      "hoan_nghênh</w>": 5644,
      "96</w>": 5645,
      "mắc_kẹt</w>": 5646,
      "thua_lỗ</w>": 5647,
      "ena</w>": 5648,
      "Hy": 5649,
      "dặm</w>": 5650,
      "ngừng_bắn</w>": 5651,
      "phong_toả</w>": 5652,
      "e-": 5653,
      "cản</w>": 5654,
      "chu_đáo</w>": 5655,
      "Trần_Đại_Quang</w>": 5656,
      "QL": 5657,
      "giòn</w>": 5658,
      "mi</w>": 5659,
      "lường</w>": 5660,
      "Thống_Nhất</w>": 5661,
      "ong_": 5662,
      "Hoặc</w>": 5663,
      "công_đoàn</w>": 5664,
      "bổ</w>": 5665,
      "mà_lại</w>": 5666,
      "Cao_đẳng</w>": 5667,
      "Quảng</w>": 5668,
      "phẩm_chất</w>": 5669,
      "thông_số</w>": 5670,
      "HN</w>": 5671,
      "đương_nhiên</w>": 5672,
      "ế</w>": 5673,
      "dê</w>": 5674,
      "chào_mừng</w>": 5675,
      "bày_bán</w>": 5676,
      "bìa</w>": 5677,
      "Triệu_": 5678,
      "VPF</w>": 5679,
      "lus</w>": 5680,
      "tis</w>": 5681,
      "Kinh_doanh</w>": 5682,
      "ương</w>": 5683,
      "trả_giá</w>": 5684,
      "học_hành</w>": 5685,
      "Ngôi_sao</w>": 5686,
      "sếp</w>": 5687,
      "bảo_hộ</w>": 5688,
      "bộ_trưởng</w>": 5689,
      "rụng</w>": 5690,
      "thiết_yếu</w>": 5691,
      "ca_ngợi</w>": 5692,
      "Cao_Bằng</w>": 5693,
      "bắt_nguồn</w>": 5694,
      "nghĩa_trang</w>": 5695,
      "tem</w>": 5696,
      "tối_ưu</w>": 5697,
      "cáo_trạng</w>": 5698,
      "dịu_dàng</w>": 5699,
      "huỷ_bỏ</w>": 5700,
      "cổ_động_viên</w>": 5701,
      "by</w>": 5702,
      "C.": 5703,
      "suy_yếu</w>": 5704,
      "đều_đặn</w>": 5705,
      "kết_cấu</w>": 5706,
      "lập_công</w>": 5707,
      "12.": 5708,
      "AS</w>": 5709,
      "laptop</w>": 5710,
      "hiếm_hoi</w>": 5711,
      "bài_bản</w>": 5712,
      "ah</w>": 5713,
      "nhẫn</w>": 5714,
      "Anh_": 5715,
      "sương_mù</w>": 5716,
      "sử</w>": 5717,
      "Đôi</w>": 5718,
      "bề</w>": 5719,
      "Suốt</w>": 5720,
      "nguyện</w>": 5721,
      "1945</w>": 5722,
      "địa_lý</w>": 5723,
      "Phần_lớn</w>": 5724,
      "ngày_xưa</w>": 5725,
      "Nhân_dịp</w>": 5726,
      "leo_thang</w>": 5727,
      "tri": 5728,
      "phần_tử</w>": 5729,
      "7,": 5730,
      "Cu": 5731,
      "Bi": 5732,
      "khối_u</w>": 5733,
      "Thành_": 5734,
      "ea</w>": 5735,
      "chú_rể</w>": 5736,
      "khen_thưởng</w>": 5737,
      "130</w>": 5738,
      "Tiền_vệ</w>": 5739,
      "1985</w>": 5740,
      "hối_lộ</w>": 5741,
      "túi_xách</w>": 5742,
      "Thượng_Hải</w>": 5743,
      "bày</w>": 5744,
      "Yemen</w>": 5745,
      "ĐB</w>": 5746,
      "cho": 5747,
      "phì</w>": 5748,
      "Ag": 5749,
      "gam</w>": 5750,
      "06</w>": 5751,
      "180</w>": 5752,
      "tuyên_phạt</w>": 5753,
      "TNO</w>": 5754,
      "Quỹ_": 5755,
      "đè</w>": 5756,
      "luôn_luôn</w>": 5757,
      "minh_chứng</w>": 5758,
      "hôi</w>": 5759,
      "sâm</w>": 5760,
      "tra</w>": 5761,
      "B.": 5762,
      "ver": 5763,
      "ATM</w>": 5764,
      "Jordan</w>": 5765,
      "L.": 5766,
      "đếm</w>": 5767,
      "Ba": 5768,
      "trở_ngại</w>": 5769,
      "Thu_": 5770,
      "Thừa_Thiên_Huế</w>": 5771,
      "hữu_cơ</w>": 5772,
      "hiệu_suất</w>": 5773,
      "khí_đốt</w>": 5774,
      "sâu_rộng</w>": 5775,
      "hạt_giống</w>": 5776,
      "xu_thế</w>": 5777,
      "Ukraina</w>": 5778,
      "ad</w>": 5779,
      "Group</w>": 5780,
      "y_học</w>": 5781,
      "xứ_sở</w>": 5782,
      "thiếu_nữ</w>": 5783,
      "giật_mình</w>": 5784,
      "4G</w>": 5785,
      "điên</w>": 5786,
      "mầm</w>": 5787,
      "truy_nã</w>": 5788,
      "karaoke</w>": 5789,
      "quần_chúng</w>": 5790,
      "ung</w>": 5791,
      "Đứng</w>": 5792,
      "ngần_ngại</w>": 5793,
      "LĐLĐ</w>": 5794,
      "tuyên</w>": 5795,
      "á": 5796,
      "chảy_máu</w>": 5797,
      "Bangkok</w>": 5798,
      "Vietnam_Airlines</w>": 5799,
      "quyền_hạn</w>": 5800,
      "dọn_dẹp</w>": 5801,
      "biệt_danh</w>": 5802,
      "riêng_biệt</w>": 5803,
      "nhà_tài_trợ</w>": 5804,
      "Bóng_đá</w>": 5805,
      "dày_đặc</w>": 5806,
      "Can": 5807,
      "trúng_tuyển</w>": 5808,
      "Chiến_dịch</w>": 5809,
      "rễ</w>": 5810,
      "thư_viện</w>": 5811,
      "Sự_kiện</w>": 5812,
      "đặc_nhiệm</w>": 5813,
      "Chúc</w>": 5814,
      "aria</w>": 5815,
      "Quảng_": 5816,
      "khí_thải</w>": 5817,
      "đại_sứ</w>": 5818,
      "hoà_giải</w>": 5819,
      "giãn</w>": 5820,
      "Anh_Tuấn</w>": 5821,
      "thế_chấp</w>": 5822,
      "sim</w>": 5823,
      "Nguyễn_Đình_": 5824,
      "Hungary</w>": 5825,
      "Cas": 5826,
      "ham</w>": 5827,
      "Tiền_đạo</w>": 5828,
      "ký_ức</w>": 5829,
      "ly": 5830,
      "nhận_biết</w>": 5831,
      "lưu_hành</w>": 5832,
      "cưỡng_chế</w>": 5833,
      "liệt</w>": 5834,
      "Chỉ_thị</w>": 5835,
      "chính_đáng</w>": 5836,
      "lệch</w>": 5837,
      "cảm_ứng</w>": 5838,
      "Ánh</w>": 5839,
      "thuỷ_thủ</w>": 5840,
      "nguội</w>": 5841,
      "khuya</w>": 5842,
      "chỉnh</w>": 5843,
      "mini</w>": 5844,
      "Chi": 5845,
      "bảo_trì</w>": 5846,
      "chửi</w>": 5847,
      "xách</w>": 5848,
      "Trà_Vinh</w>": 5849,
      "tái_tạo</w>": 5850,
      "Bitcoin</w>": 5851,
      "tình_tiết</w>": 5852,
      "ghét</w>": 5853,
      "Nội_Bài</w>": 5854,
      "tinh</w>": 5855,
      "phản_cảm</w>": 5856,
      "Ha": 5857,
      "Tướng</w>": 5858,
      "98</w>": 5859,
      "Bàn</w>": 5860,
      "phở</w>": 5861,
      "Thường</w>": 5862,
      "thủ_phạm</w>": 5863,
      "Boeing</w>": 5864,
      "Aleppo</w>": 5865,
      "tác_hại</w>": 5866,
      "giận</w>": 5867,
      "e_S": 5868,
      "gấu</w>": 5869,
      "chuyển_hoá</w>": 5870,
      "09</w>": 5871,
      "phải_biết</w>": 5872,
      "trang_sức</w>": 5873,
      "quý_giá</w>": 5874,
      "ti</w>": 5875,
      "Đầu_tiên</w>": 5876,
      "par": 5877,
      "quay_phim</w>": 5878,
      "Sống</w>": 5879,
      "chiến_sỹ</w>": 5880,
      "thu_hẹp</w>": 5881,
      "an_sinh</w>": 5882,
      "tra": 5883,
      "khả_quan</w>": 5884,
      "tiêm_kích</w>": 5885,
      "Liên_hiệp</w>": 5886,
      "chương</w>": 5887,
      "com": 5888,
      "tro</w>": 5889,
      "khánh_thành</w>": 5890,
      "cánh_tay</w>": 5891,
      "Chính_trị</w>": 5892,
      "ca_nhạc</w>": 5893,
      ".vn.</w>": 5894,
      "thỉnh_thoảng</w>": 5895,
      "Quân_khu</w>": 5896,
      "hit</w>": 5897,
      "vô_số</w>": 5898,
      "chìa_khoá</w>": 5899,
      "Giang_": 5900,
      "xa_lạ</w>": 5901,
      "dầu_mỏ</w>": 5902,
      "ica</w>": 5903,
      "Trái_đất</w>": 5904,
      "phá_sản</w>": 5905,
      "da": 5906,
      "kênh_truyền_hình</w>": 5907,
      "tăng_tốc</w>": 5908,
      "kỳ_hạn</w>": 5909,
      "Ac": 5910,
      "Di_sản</w>": 5911,
      "nhiếp_ảnh_gia</w>": 5912,
      "bú</w>": 5913,
      "giao_diện</w>": 5914,
      "Thống_đốc</w>": 5915,
      "id</w>": 5916,
      "Tuyên_Quang</w>": 5917,
      "tràn_lan</w>": 5918,
      "Quỳnh_": 5919,
      "Đạo_diễn</w>": 5920,
      "Ly</w>": 5921,
      "Tăng</w>": 5922,
      "kéo_theo</w>": 5923,
      "trí</w>": 5924,
      "cảnh_giác</w>": 5925,
      "lặp</w>": 5926,
      "Yêu</w>": 5927,
      "mặt_trận</w>": 5928,
      "khuyết_điểm</w>": 5929,
      "Quy_Nhơn</w>": 5930,
      "dược</w>": 5931,
      "bí</w>": 5932,
      "Sau_này</w>": 5933,
      "Na_Uy</w>": 5934,
      "Thơ</w>": 5935,
      "ing": 5936,
      "1-0</w>": 5937,
      "%</w>": 5938,
      "SHB</w>": 5939,
      "Clinton</w>": 5940,
      "trách</w>": 5941,
      "tả</w>": 5942,
      "mốt</w>": 5943,
      "mô_tô</w>": 5944,
      "Liên_": 5945,
      "Á</w>": 5946,
      "Lịch</w>": 5947,
      "Chỉ_số</w>": 5948,
      "song_song</w>": 5949,
      "Cộng_sản</w>": 5950,
      "đùi</w>": 5951,
      "tỉnh_táo</w>": 5952,
      "Cẩm_": 5953,
      "Nghi</w>": 5954,
      "La</w>": 5955,
      "lượt_về</w>": 5956,
      "ino</w>": 5957,
      "Học_sinh</w>": 5958,
      "tiện</w>": 5959,
      "năm_tháng</w>": 5960,
      "aw": 5961,
      "quý_hiếm</w>": 5962,
      "du</w>": 5963,
      "31/": 5964,
      "một_ít</w>": 5965,
      "Cương</w>": 5966,
      "bin</w>": 5967,
      "phát_ngôn_viên</w>": 5968,
      "Giai_đoạn</w>": 5969,
      "đại_dương</w>": 5970,
      "tuổi_trẻ</w>": 5971,
      "Man_Utd</w>": 5972,
      "LED</w>": 5973,
      "đường_kính</w>": 5974,
      "Cá</w>": 5975,
      "nh</w>": 5976,
      "hợp_nhất</w>": 5977,
      "lục_địa</w>": 5978,
      "BIDV</w>": 5979,
      "xi_măng</w>": 5980,
      "Tim</w>": 5981,
      "chiêu_mộ</w>": 5982,
      "tỉnh_thành</w>": 5983,
      "tri_ân</w>": 5984,
      "tàu_thuyền</w>": 5985,
      "giây_phút</w>": 5986,
      "que</w>": 5987,
      "VKSND</w>": 5988,
      "Tham_gia</w>": 5989,
      "phòng_khám</w>": 5990,
      "CH": 5991,
      "biên_phòng</w>": 5992,
      "nhà_trọ</w>": 5993,
      "Phiên_bản</w>": 5994,
      "ưu_điểm</w>": 5995,
      "bộc_lộ</w>": 5996,
      "thao_tác</w>": 5997,
      "ca_sỹ</w>": 5998,
      "Nguyễn_Phú_Trọng</w>": 5999,
      "Thuỷ_": 6000,
      "Nguyễn_Thanh_": 6001,
      "ăn_mừng</w>": 6002,
      "đụng_độ</w>": 6003,
      "lộc</w>": 6004,
      "ly_khai</w>": 6005,
      "liên_doanh</w>": 6006,
      "hư</w>": 6007,
      "tổn_hại</w>": 6008,
      "ư</w>": 6009,
      "ai": 6010,
      "Chính_sách</w>": 6011,
      "Hạ_viện</w>": 6012,
      "tẩy</w>": 6013,
      "xe_ôm</w>": 6014,
      "nghị_sĩ</w>": 6015,
      "sôi_nổi</w>": 6016,
      "Bình_Thạnh</w>": 6017,
      "7-": 6018,
      "côn_trùng</w>": 6019,
      "1A</w>": 6020,
      "không_thể_nào</w>": 6021,
      "Thân</w>": 6022,
      "chuyển_động</w>": 6023,
      "dồi_dào</w>": 6024,
      "Hình_sự</w>": 6025,
      "tiếc_nuối</w>": 6026,
      "TPO</w>": 6027,
      "Đen</w>": 6028,
      "cường_quốc</w>": 6029,
      "mạnh_dạn</w>": 6030,
      "Kiều_": 6031,
      "đắng</w>": 6032,
      "Tây_Hồ</w>": 6033,
      "Đảo</w>": 6034,
      "lầm</w>": 6035,
      "bản_địa</w>": 6036,
      "ni</w>": 6037,
      "soi</w>": 6038,
      "Cha</w>": 6039,
      "pp": 6040,
      "Chương</w>": 6041,
      "Sách</w>": 6042,
      "RT</w>": 6043,
      "un</w>": 6044,
      "năm_tuổi</w>": 6045,
      "trào_lưu</w>": 6046,
      "Hành_động</w>": 6047,
      "mù</w>": 6048,
      "chào_bán</w>": 6049,
      "mới_lạ</w>": 6050,
      "Cộng_đồng</w>": 6051,
      "Tân_Bình</w>": 6052,
      "chiêm_ngưỡng</w>": 6053,
      "Chân</w>": 6054,
      "Her": 6055,
      "Cán_bộ</w>": 6056,
      "vấp</w>": 6057,
      "tập_thể_dục</w>": 6058,
      "CS": 6059,
      "sướng</w>": 6060,
      "Vietcombank</w>": 6061,
      "Mas": 6062,
      "bikini</w>": 6063,
      "8-": 6064,
      "Phạm_Hương</w>": 6065,
      "He": 6066,
      "xuống_đường</w>": 6067,
      "Bạch_": 6068,
      "quen_biết</w>": 6069,
      "thất_thoát</w>": 6070,
      "đề_phòng</w>": 6071,
      "làm_giàu</w>": 6072,
      "chọn_lựa</w>": 6073,
      "nguy_kịch</w>": 6074,
      "quốc_hội</w>": 6075,
      "xấu_hổ</w>": 6076,
      "ke</w>": 6077,
      "bảo_lãnh</w>": 6078,
      "hẻm</w>": 6079,
      "lâu_đời</w>": 6080,
      "Lập</w>": 6081,
      "VN-Index</w>": 6082,
      "9,": 6083,
      "nhà_đất</w>": 6084,
      "trung_thực</w>": 6085,
      "đầu_vào</w>": 6086,
      "liveshow</w>": 6087,
      "Khách_hàng</w>": 6088,
      "hội_tụ</w>": 6089,
      "Youtube</w>": 6090,
      "C-": 6091,
      "Núi</w>": 6092,
      "họ_hàng</w>": 6093,
      "Thượng_viện</w>": 6094,
      "toàn_thể</w>": 6095,
      "tàn_phá</w>": 6096,
      "tiêu_huỷ</w>": 6097,
      "Trái_Đất</w>": 6098,
      "sóng_gió</w>": 6099,
      "8,": 6100,
      "nhái</w>": 6101,
      "đồ_hoạ</w>": 6102,
      "lục</w>": 6103,
      "dắt</w>": 6104,
      "mở_màn</w>": 6105,
      "Tuyết</w>": 6106,
      "tion</w>": 6107,
      "man": 6108,
      "thể_dục</w>": 6109,
      "Số_lượng</w>": 6110,
      "1960</w>": 6111,
      "đế</w>": 6112,
      "ell": 6113,
      "Z</w>": 6114,
      "_l": 6115,
      "suýt</w>": 6116,
      "Ber": 6117,
      "Chợ</w>": 6118,
      "điển_trai</w>": 6119,
      "Cal": 6120,
      "thiệt_thòi</w>": 6121,
      "pe": 6122,
      "cởi_mở</w>": 6123,
      "tụ_tập</w>": 6124,
      "tâm_linh</w>": 6125,
      "tân_binh</w>": 6126,
      "Chú</w>": 6127,
      "khuyến_mãi</w>": 6128,
      "ướt</w>": 6129,
      "Phước_": 6130,
      "vùng_cao</w>": 6131,
      "29": 6132,
      "thương_lái</w>": 6133,
      "hầu</w>": 6134,
      "canh_tác</w>": 6135,
      "hiếp_dâm</w>": 6136,
      "Moskva</w>": 6137,
      "thế_trận</w>": 6138,
      "4-": 6139,
      "háo_hức</w>": 6140,
      "phu_nhân</w>": 6141,
      "sét</w>": 6142,
      "đệm</w>": 6143,
      "thanh_lịch</w>": 6144,
      "hình_tượng</w>": 6145,
      "môn_học</w>": 6146,
      "bóc</w>": 6147,
      "19/": 6148,
      "nêm</w>": 6149,
      "Đ</w>": 6150,
      "Hỗ_trợ</w>": 6151,
      "xẻ</w>": 6152,
      "giờ_địa_phương</w>": 6153,
      "âm_lịch</w>": 6154,
      "chuẩn_mực</w>": 6155,
      "bộ_binh</w>": 6156,
      "thai_nhi</w>": 6157,
      "hoạ</w>": 6158,
      "đau_lòng</w>": 6159,
      "nghiêm_ngặt</w>": 6160,
      "nốt</w>": 6161,
      "bánh_mì</w>": 6162,
      "the": 6163,
      "dung_tích</w>": 6164,
      "bền</w>": 6165,
      "USB</w>": 6166,
      "1984</w>": 6167,
      "ent</w>": 6168,
      "đặc</w>": 6169,
      "nhân_loại</w>": 6170,
      "tốp</w>": 6171,
      "búp_bê</w>": 6172,
      "kẹo</w>": 6173,
      "Tường</w>": 6174,
      "3-4</w>": 6175,
      "bus</w>": 6176,
      "Ngày_nay</w>": 6177,
      "gạt</w>": 6178,
      "Vietlott</w>": 6179,
      "Giờ_đây</w>": 6180,
      "chủ_nhiệm</w>": 6181,
      "St": 6182,
      "MobiFone</w>": 6183,
      "đến_nỗi</w>": 6184,
      "Triều</w>": 6185,
      "|</w>": 6186,
      "Ju": 6187,
      "lót</w>": 6188,
      "cứu_hoả</w>": 6189,
      "du": 6190,
      "thầu</w>": 6191,
      "lão_hoá</w>": 6192,
      "tự_sát</w>": 6193,
      "thế_lực</w>": 6194,
      "Tp.</w>": 6195,
      "canxi</w>": 6196,
      "Nguyên_liệu</w>": 6197,
      "võ_thuật</w>": 6198,
      "rung</w>": 6199,
      "đắt_đỏ</w>": 6200,
      "chuồng</w>": 6201,
      "07</w>": 6202,
      "tố_tụng</w>": 6203,
      "vọt</w>": 6204,
      "li</w>": 6205,
      "nước_nhà</w>": 6206,
      "Bệnh_nhân</w>": 6207,
      "số_ít</w>": 6208,
      "Cho": 6209,
      "Ta": 6210,
      "Càng</w>": 6211,
      "land</w>": 6212,
      "teen</w>": 6213,
      "cầu_vượt</w>": 6214,
      "thon</w>": 6215,
      "94</w>": 6216,
      "đục</w>": 6217,
      "quân_nhân</w>": 6218,
      "Lee_": 6219,
      "dịu</w>": 6220,
      "ca": 6221,
      "pháp</w>": 6222,
      "Độ_ẩm</w>": 6223,
      "vội_vàng</w>": 6224,
      "Huân_chương</w>": 6225,
      "Vị_trí</w>": 6226,
      "Nguyễn_Xuân_": 6227,
      "sân_cỏ</w>": 6228,
      "vậy_mà</w>": 6229,
      "dòng_chảy</w>": 6230,
      "Đồn</w>": 6231,
      "VI": 6232,
      "_R": 6233,
      "khỉ</w>": 6234,
      "Giám_đốc_điều_hành</w>": 6235,
      "ừ</w>": 6236,
      "Phùng_": 6237,
      "Trời</w>": 6238,
      "thuyền_trưởng</w>": 6239,
      "S-": 6240,
      "Vốn</w>": 6241,
      "tiện_lợi</w>": 6242,
      "gai</w>": 6243,
      "Mối</w>": 6244,
      "J</w>": 6245,
      "sáng_tỏ</w>": 6246,
      "NH": 6247,
      "quyển</w>": 6248,
      "nhà_tù</w>": 6249,
      "rút_lui</w>": 6250,
      "tử_hình</w>": 6251,
      "au</w>": 6252,
      "giả_mạo</w>": 6253,
      "kích</w>": 6254,
      "hoá_thân</w>": 6255,
      "trung_học</w>": 6256,
      "xúc_phạm</w>": 6257,
      "âm_thầm</w>": 6258,
      "tái_hiện</w>": 6259,
      "dự_luật</w>": 6260,
      "Bà_Rịa</w>": 6261,
      "lắc</w>": 6262,
      "ari": 6263,
      "Roma</w>": 6264,
      "tui</w>": 6265,
      "kì</w>": 6266,
      "Độ</w>": 6267,
      "97</w>": 6268,
      "truyền_tải</w>": 6269,
      "NXB</w>": 6270,
      "rể</w>": 6271,
      "125</w>": 6272,
      "điểm_số</w>": 6273,
      "NTK</w>": 6274,
      "Mông</w>": 6275,
      "vương_miện</w>": 6276,
      "Thuỷ_Tiên</w>": 6277,
      "40": 6278,
      "Ra": 6279,
      "Bắc_Mỹ</w>": 6280,
      "ô": 6281,
      "25/": 6282,
      "ngh": 6283,
      "gót</w>": 6284,
      "ban_ngày</w>": 6285,
      "era</w>": 6286,
      "ler</w>": 6287,
      "For": 6288,
      "Lại</w>": 6289,
      "kè</w>": 6290,
      "cường_độ</w>": 6291,
      "Sự_nghiệp</w>": 6292,
      "Thượng_": 6293,
      "Đời_sống</w>": 6294,
      "nuốt</w>": 6295,
      "ck</w>": 6296,
      "lọ</w>": 6297,
      "quyền_sở_hữu</w>": 6298,
      "khán_đài</w>": 6299,
      "lây_lan</w>": 6300,
      "Thông_báo</w>": 6301,
      "Ros": 6302,
      "kỹ_thuật_số</w>": 6303,
      "kỷ</w>": 6304,
      "dở</w>": 6305,
      "Chiến_thắng</w>": 6306,
      "LĐ</w>": 6307,
      "khuyến_mại</w>": 6308,
      "tor</w>": 6309,
      "bảo_hiểm_y_tế</w>": 6310,
      "tuổi_thọ</w>": 6311,
      "thiếu_hụt</w>": 6312,
      "ff": 6313,
      "ND</w>": 6314,
      "tiểu_thương</w>": 6315,
      "nổ_súng</w>": 6316,
      "ck": 6317,
      "bấy_giờ</w>": 6318,
      "é</w>": 6319,
      "hiện_hữu</w>": 6320,
      "Wenger</w>": 6321,
      "tình_cờ</w>": 6322,
      "for": 6323,
      "Phong_": 6324,
      "Vẻ</w>": 6325,
      "Nhà_văn</w>": 6326,
      "AN</w>": 6327,
      "Tối_cao</w>": 6328,
      "nghiêm_khắc</w>": 6329,
      "vận_dụng</w>": 6330,
      "Phóng_viên</w>": 6331,
      "tiến_triển</w>": 6332,
      "it</w>": 6333,
      "văng</w>": 6334,
      "Duyên</w>": 6335,
      "Tư_lệnh</w>": 6336,
      "ấn_định</w>": 6337,
      "nhậm_chức</w>": 6338,
      "QĐ-TTg</w>": 6339,
      "VOV.VN</w>": 6340,
      "Căn</w>": 6341,
      "160</w>": 6342,
      "lật_đổ</w>": 6343,
      "sex</w>": 6344,
      "Sơn_Trà</w>": 6345,
      "bảo_hành</w>": 6346,
      "hoà_nhập</w>": 6347,
      "mạch_máu</w>": 6348,
      "HP</w>": 6349,
      "cốt</w>": 6350,
      "nhà_giáo</w>": 6351,
      "Zing</w>": 6352,
      "1979</w>": 6353,
      "ngoại_ô</w>": 6354,
      "nhọn</w>": 6355,
      "Đoàn_": 6356,
      "đường_thuỷ</w>": 6357,
      "đinh</w>": 6358,
      "quỳ</w>": 6359,
      "Thương_binh</w>": 6360,
      "Ge": 6361,
      "LS</w>": 6362,
      "ba": 6363,
      "TR": 6364,
      "sót</w>": 6365,
      "ay_": 6366,
      "ngôi_vị</w>": 6367,
      "định_vị</w>": 6368,
      "1.200</w>": 6369,
      "Sp": 6370,
      "Vừa_qua</w>": 6371,
      "af": 6372,
      "trung_gian</w>": 6373,
      "end": 6374,
      "lụa</w>": 6375,
      "Tình_yêu</w>": 6376,
      "tao</w>": 6377,
      "bế</w>": 6378,
      "ano</w>": 6379,
      "Xét</w>": 6380,
      "Hưng_": 6381,
      "ens</w>": 6382,
      "lỗ_hổng</w>": 6383,
      "thân_mật</w>": 6384,
      "Cristiano_Ronaldo</w>": 6385,
      "ưa_thích</w>": 6386,
      "lặng_lẽ</w>": 6387,
      "Hôm_qua</w>": 6388,
      "đương_kim</w>": 6389,
      "Cửa</w>": 6390,
      "sách_giáo_khoa</w>": 6391,
      "SIM</w>": 6392,
      "VietNamNet</w>": 6393,
      "Bor": 6394,
      "hành_hung</w>": 6395,
      "EC</w>": 6396,
      "Bình_Chánh</w>": 6397,
      "ner</w>": 6398,
      "núi_lửa</w>": 6399,
      "sốt_xuất_huyết</w>": 6400,
      "tù_nhân</w>": 6401,
      "cổ_tức</w>": 6402,
      "xoài</w>": 6403,
      "6-": 6404,
      "TPP</w>": 6405,
      "óc</w>": 6406,
      "hấp_thụ</w>": 6407,
      "lộng_lẫy</w>": 6408,
      "16/": 6409,
      "ếch</w>": 6410,
      "sư_tử</w>": 6411,
      "nữ_tính</w>": 6412,
      "tương_đồng</w>": 6413,
      "vật_tư</w>": 6414,
      "Tư_vấn</w>": 6415,
      "bại</w>": 6416,
      "Croatia</w>": 6417,
      "huyết</w>": 6418,
      "eg": 6419,
      "dầu_thô</w>": 6420,
      "Con_số</w>": 6421,
      "chu_kỳ</w>": 6422,
      "bè</w>": 6423,
      "sứ_mệnh</w>": 6424,
      "hoang</w>": 6425,
      "Everton</w>": 6426,
      "chuyên_dụng</w>": 6427,
      "Công_văn</w>": 6428,
      "Tuần_lễ</w>": 6429,
      "chí</w>": 6430,
      "VCK</w>": 6431,
      "quyên_góp</w>": 6432,
      "Sch": 6433,
      "Nhã_Phương</w>": 6434,
      "hoả_hoạn</w>": 6435,
      "ara</w>": 6436,
      "đột_nhập</w>": 6437,
      "Uống</w>": 6438,
      "trễ</w>": 6439,
      "khung_cảnh</w>": 6440,
      "khai_báo</w>": 6441,
      "đồ_đạc</w>": 6442,
      "Hiệp_ước</w>": 6443,
      "MP</w>": 6444,
      "hiện_trạng</w>": 6445,
      "tân_": 6446,
      "tro": 6447,
      "kích_cỡ</w>": 6448,
      "thô</w>": 6449,
      "tát</w>": 6450,
      "Quang_Trung</w>": 6451,
      "9.000</w>": 6452,
      "Kết_luận</w>": 6453,
      "La": 6454,
      "Jose_Mourinho</w>": 6455,
      "28/": 6456,
      "AIDS</w>": 6457,
      "Hoàn</w>": 6458,
      "hình_dáng</w>": 6459,
      "Giao</w>": 6460,
      "My": 6461,
      "tạo_dáng</w>": 6462,
      "bạo_hành</w>": 6463,
      "bình_ổn</w>": 6464,
      "tri_thức</w>": 6465,
      "Min": 6466,
      "móc</w>": 6467,
      "thể_chất</w>": 6468,
      "vành_đai</w>": 6469,
      "EURO</w>": 6470,
      "Tô_": 6471,
      "nuôi_trồng</w>": 6472,
      "Phần_Lan</w>": 6473,
      "bỏ_hoang</w>": 6474,
      "ine_": 6475,
      "Phiên</w>": 6476,
      "công_dụng</w>": 6477,
      "nọ</w>": 6478,
      "Nam_Mỹ</w>": 6479,
      "rách</w>": 6480,
      "tràn_ngập</w>": 6481,
      "tu</w>": 6482,
      "Tông</w>": 6483,
      "bao_lâu</w>": 6484,
      "chứng_từ</w>": 6485,
      "27": 6486,
      "14/": 6487,
      "đốc</w>": 6488,
      "ey</w>": 6489,
      "khoai_tây</w>": 6490,
      "Tây_Nam</w>": 6491,
      "vừa_mới</w>": 6492,
      "phấn_khởi</w>": 6493,
      "thuyền_viên</w>": 6494,
      "mon": 6495,
      "quán_triệt</w>": 6496,
      "cấp_bách</w>": 6497,
      "ik": 6498,
      "Đắk_Nông</w>": 6499,
      "tàng_hình</w>": 6500,
      "1968</w>": 6501,
      "ent": 6502,
      "quán_quân</w>": 6503,
      "bình_dân</w>": 6504,
      "FLC</w>": 6505,
      "CH</w>": 6506,
      "_F": 6507,
      "kíp</w>": 6508,
      "nhát</w>": 6509,
      "Hợp_đồng</w>": 6510,
      "Nigeria</w>": 6511,
      "nhầm_lẫn</w>": 6512,
      "đề_cao</w>": 6513,
      "con_giáp</w>": 6514,
      "Du_khách</w>": 6515,
      "0%</w>": 6516,
      "lội</w>": 6517,
      "or</w>": 6518,
      "loạn</w>": 6519,
      "cởi</w>": 6520,
      "Or": 6521,
      "95%</w>": 6522,
      "công_đoạn</w>": 6523,
      "Ver": 6524,
      "ml</w>": 6525,
      "Q.": 6526,
      "nhỏ_bé</w>": 6527,
      "Km</w>": 6528,
      "giam_giữ</w>": 6529,
      "AN": 6530,
      "bù_đắp</w>": 6531,
      "cục_bộ</w>": 6532,
      "do_vậy</w>": 6533,
      "Berlin</w>": 6534,
      "Oanh</w>": 6535,
      "thiên</w>": 6536,
      "tổng_giám_đốc</w>": 6537,
      "Anh_hùng</w>": 6538,
      "q": 6539,
      "1,3</w>": 6540,
      "lôi_kéo</w>": 6541,
      "phản_công</w>": 6542,
      "One</w>": 6543,
      "1972</w>": 6544,
      "4,5</w>": 6545,
      "ngoạn_mục</w>": 6546,
      "Luân</w>": 6547,
      "chùm</w>": 6548,
      "1983</w>": 6549,
      "kháng_cáo</w>": 6550,
      "nhuộm</w>": 6551,
      "quy_chuẩn</w>": 6552,
      "cô_lập</w>": 6553,
      "nhà_hát</w>": 6554,
      "CIA</w>": 6555,
      "My</w>": 6556,
      "_Đ": 6557,
      "đụng</w>": 6558,
      "May_mắn</w>": 6559,
      "thương_mại_điện_tử</w>": 6560,
      "Tổng_thư_ký</w>": 6561,
      "đánh_đập</w>": 6562,
      "diện_mạo</w>": 6563,
      "tứ</w>": 6564,
      "Mạnh_": 6565,
      "Tổng_": 6566,
      "lưu_trú</w>": 6567,
      "đóng_tàu</w>": 6568,
      "trăn_trở</w>": 6569,
      "chân_dung</w>": 6570,
      "va": 6571,
      "cứng_rắn</w>": 6572,
      "thương_vong</w>": 6573,
      "9-": 6574,
      "đường_lối</w>": 6575,
      "phát_tán</w>": 6576,
      "Huyện_uỷ</w>": 6577,
      "Bộ_đội</w>": 6578,
      "gió_giật</w>": 6579,
      "gậy</w>": 6580,
      "gom</w>": 6581,
      "đệ</w>": 6582,
      "mất_mát</w>": 6583,
      "eri</w>": 6584,
      "uỷ_ban</w>": 6585,
      "danh_hài</w>": 6586,
      "Bal": 6587,
      "ngu": 6588,
      "Ireland</w>": 6589,
      "‘</w>": 6590,
      "bệnh_nhi</w>": 6591,
      "len</w>": 6592,
      "Bởi_vì</w>": 6593,
      "nhà_quản_lý</w>": 6594,
      "chèo</w>": 6595,
      "tiếp_viên</w>": 6596,
      "Tấn</w>": 6597,
      "18/": 6598,
      "giải_đáp</w>": 6599,
      "Long_Thành</w>": 6600,
      "ngài</w>": 6601,
      "có_điều</w>": 6602,
      "thạc_sĩ</w>": 6603,
      "ghen</w>": 6604,
      "xôi</w>": 6605,
      "chính_trị_gia</w>": 6606,
      "Trải</w>": 6607,
      "đàn_em</w>": 6608,
      "hoả_lực</w>": 6609,
      "xuất_nhập_khẩu</w>": 6610,
      "CT": 6611,
      "os</w>": 6612,
      "Thực_ra</w>": 6613,
      "ati": 6614,
      "lẻ</w>": 6615,
      "ưa</w>": 6616,
      "Thạch</w>": 6617,
      "re</w>": 6618,
      "thiêu</w>": 6619,
      "38": 6620,
      "NTM</w>": 6621,
      "chị_gái</w>": 6622,
      "tinh_vi</w>": 6623,
      "Chỉ_huy</w>": 6624,
      "ai_": 6625,
      "ounce</w>": 6626,
      "toạ_đàm</w>": 6627,
      "ft</w>": 6628,
      "S.": 6629,
      "Đông_Bắc</w>": 6630,
      "thuần</w>": 6631,
      "thích_ứng</w>": 6632,
      "duyên_dáng</w>": 6633,
      "ranh_giới</w>": 6634,
      "đắc_cử</w>": 6635,
      "tỉa</w>": 6636,
      "Hoàng_tử</w>": 6637,
      "U20</w>": 6638,
      "35": 6639,
      "đẫm</w>": 6640,
      "bảo_hiểm_xã_hội</w>": 6641,
      "ĐTQG</w>": 6642,
      "cấp_nước</w>": 6643,
      "phà</w>": 6644,
      "quy_tụ</w>": 6645,
      "trình_làng</w>": 6646,
      "thảm_đỏ</w>": 6647,
      "đôn_đốc</w>": 6648,
      "Hướng</w>": 6649,
      "tụt</w>": 6650,
      "biểu_dương</w>": 6651,
      "Đọc</w>": 6652,
      "ưu_ái</w>": 6653,
      "Nhớ</w>": 6654,
      "ngoan</w>": 6655,
      "chuyển_hướng</w>": 6656,
      "trung_cấp</w>": 6657,
      "sụt</w>": 6658,
      "Inter</w>": 6659,
      "ez": 6660,
      "ali": 6661,
      "Trọng</w>": 6662,
      "Danh</w>": 6663,
      "đường_bay</w>": 6664,
      "sinh_động</w>": 6665,
      "2021</w>": 6666,
      "lướt</w>": 6667,
      "chung_cuộc</w>": 6668,
      "2025</w>": 6669,
      "26/": 6670,
      "Bạch_Mai</w>": 6671,
      "kinh_điển</w>": 6672,
      "sức_sống</w>": 6673,
      "Brexit</w>": 6674,
      "thống_trị</w>": 6675,
      "Nhân_viên</w>": 6676,
      "Tuyên_giáo</w>": 6677,
      "Van_Gaal</w>": 6678,
      "Điển_hình</w>": 6679,
      "Quá</w>": 6680,
      "00</w>": 6681,
      "thương_binh</w>": 6682,
      "Ham": 6683,
      "phân_chia</w>": 6684,
      "cự_ly</w>": 6685,
      "TNGT</w>": 6686,
      "đa_năng</w>": 6687,
      "ve": 6688,
      "tiện_nghi</w>": 6689,
      "ghi_nhớ</w>": 6690,
      "tan": 6691,
      "bệnh_lý</w>": 6692,
      "ý_muốn</w>": 6693,
      "F-35</w>": 6694,
      "dư</w>": 6695,
      "22/": 6696,
      "bất_lực</w>": 6697,
      "_th": 6698,
      "Uỷ_ban_nhân_dân</w>": 6699,
      "chúa</w>": 6700,
      "vô_tư</w>": 6701,
      "lệ_phí</w>": 6702,
      "Ste": 6703,
      "cuộn</w>": 6704,
      "Viễn_thông</w>": 6705,
      "chào_đời</w>": 6706,
      "viền</w>": 6707,
      "khoác</w>": 6708,
      "nữ_hoàng</w>": 6709,
      "ồ_ạt</w>": 6710,
      "BT</w>": 6711,
      "mưu_sinh</w>": 6712,
      "Phạm</w>": 6713,
      "tha</w>": 6714,
      "nghỉ_việc</w>": 6715,
      "thăng_hoa</w>": 6716,
      "xâm_lược</w>": 6717,
      "tor": 6718,
      "râu</w>": 6719,
      "cảnh_cáo</w>": 6720,
      "sản_phụ</w>": 6721,
      "Đôi_khi</w>": 6722,
      "Tình_hình</w>": 6723,
      "model</w>": 6724,
      "xem_lại</w>": 6725,
      "nới</w>": 6726,
      "28": 6727,
      "T-": 6728,
      "Trọng_": 6729,
      "Đỏ</w>": 6730,
      "nội_thành</w>": 6731,
      "thịnh_vượng</w>": 6732,
      "Nguyễn_Minh_": 6733,
      "vận_tốc</w>": 6734,
      "công_trường</w>": 6735,
      "Hành_trình</w>": 6736,
      "bôi</w>": 6737,
      "thực_khách</w>": 6738,
      "Hoài</w>": 6739,
      "răn_đe</w>": 6740,
      "hội_chợ</w>": 6741,
      "vắt</w>": 6742,
      "kích_động</w>": 6743,
      "200": 6744,
      "ty": 6745,
      "Ban_Bí_thư</w>": 6746,
      "khốc_liệt</w>": 6747,
      "mg</w>": 6748,
      "el_": 6749,
      "cớ</w>": 6750,
      "Giảm</w>": 6751,
      "rang</w>": 6752,
      "tịch_thu</w>": 6753,
      "Kỳ_": 6754,
      "lây_nhiễm</w>": 6755,
      "một_khi</w>": 6756,
      "PC": 6757,
      "đúc</w>": 6758,
      "Nông_dân</w>": 6759,
      "xi": 6760,
      "140</w>": 6761,
      "đánh_đầu</w>": 6762,
      "Is": 6763,
      "Hè</w>": 6764,
      "tuổi_thơ</w>": 6765,
      "nóc</w>": 6766,
      "FBI</w>": 6767,
      "22.": 6768,
      "17/": 6769,
      "Người_phát_ngôn</w>": 6770,
      "Đội_hình</w>": 6771,
      "Hội_chợ</w>": 6772,
      "quạt</w>": 6773,
      "27/": 6774,
      "Ba_Vì</w>": 6775,
      "21/": 6776,
      "Sam": 6777,
      "hiền_lành</w>": 6778,
      "cảm_động</w>": 6779,
      "mãi_mãi</w>": 6780,
      "Geometridae</w>": 6781,
      "ngỏ</w>": 6782,
      "đúp</w>": 6783,
      "Khối</w>": 6784,
      "Assad</w>": 6785,
      "tàu_khu_trục</w>": 6786,
      "Pro</w>": 6787,
      "kệ</w>": 6788,
      "vuông</w>": 6789,
      "đạm</w>": 6790,
      "con_nhỏ</w>": 6791,
      "Đình</w>": 6792,
      "bao_vây</w>": 6793,
      "đánh_cắp</w>": 6794,
      "K.": 6795,
      "lý_luận</w>": 6796,
      "J.": 6797,
      "lữ_hành</w>": 6798,
      "ua</w>": 6799,
      "cá_thể</w>": 6800,
      "tải_trọng</w>": 6801,
      "hậu_trường</w>": 6802,
      "ODA</w>": 6803,
      "cá_tra</w>": 6804,
      "nghi_lễ</w>": 6805,
      "mở_đầu</w>": 6806,
      "ngẫu_nhiên</w>": 6807,
      "làm_khách</w>": 6808,
      "từ_từ</w>": 6809,
      "Sức_khoẻ</w>": 6810,
      "29/": 6811,
      "chấn_động</w>": 6812,
      "Tám</w>": 6813,
      "Val": 6814,
      "hít</w>": 6815,
      "Điền</w>": 6816,
      "ngoài_ra</w>": 6817,
      "kinh_ngạc</w>": 6818,
      "dàn_dựng</w>": 6819,
      "U21</w>": 6820,
      "he": 6821,
      "ev</w>": 6822,
      "age</w>": 6823,
      "sản_sinh</w>": 6824,
      "50": 6825,
      "dễ_chịu</w>": 6826,
      "Hari_Won</w>": 6827,
      "tuỳ_thuộc</w>": 6828,
      "sơ</w>": 6829,
      "360</w>": 6830,
      "quất</w>": 6831,
      "danh_giá</w>": 6832,
      "Quan_hệ</w>": 6833,
      "máy_chủ</w>": 6834,
      "Tạo</w>": 6835,
      "long</w>": 6836,
      "Gặp</w>": 6837,
      "Ngay_lập_tức</w>": 6838,
      "lin": 6839,
      "phàn_nàn</w>": 6840,
      "Bộ_Tư_lệnh</w>": 6841,
      "Việt_kiều</w>": 6842,
      "Tham_dự</w>": 6843,
      "vững_mạnh</w>": 6844,
      "giặc</w>": 6845,
      "Khả_năng</w>": 6846,
      "ch_": 6847,
      "cúi</w>": 6848,
      "đính</w>": 6849,
      "gợi</w>": 6850,
      "www.": 6851,
      "Không_gian</w>": 6852,
      "rớt</w>": 6853,
      "phế_liệu</w>": 6854,
      "tỷ_trọng</w>": 6855,
      "hệ_sinh_thái</w>": 6856,
      "mạ</w>": 6857,
      "tình_thế</w>": 6858,
      "60.000</w>": 6859,
      "Hy_vọng</w>": 6860,
      "NG": 6861,
      "ada</w>": 6862,
      "ôi</w>": 6863,
      "huỷ_diệt</w>": 6864,
      "Điệp</w>": 6865,
      "logo</w>": 6866,
      "Ứng_dụng</w>": 6867,
      "Ben": 6868,
      "Chất_lượng</w>": 6869,
      "Niềm</w>": 6870,
      "hải_lý</w>": 6871,
      "hông</w>": 6872,
      "_h": 6873,
      "We": 6874,
      "hoài_nghi</w>": 6875,
      "trái_đất</w>": 6876,
      "tiếp_thị</w>": 6877,
      "hộp_số</w>": 6878,
      "tiêu_chảy</w>": 6879,
      "hứng_thú</w>": 6880,
      "Nguyệt</w>": 6881,
      "Ca": 6882,
      "vo</w>": 6883,
      "phụ_cấp</w>": 6884,
      "1981</w>": 6885,
      "Bank</w>": 6886,
      "chế_tài</w>": 6887,
      "biết_bao</w>": 6888,
      "Hữu_Thắng</w>": 6889,
      "tập_kết</w>": 6890,
      "ông_xã</w>": 6891,
      "ty</w>": 6892,
      "ít_nhiều</w>": 6893,
      "Chống</w>": 6894,
      "des</w>": 6895,
      "Chắc_chắn</w>": 6896,
      "buộc_tội</w>": 6897,
      "Sân_bay</w>": 6898,
      "xấp_xỉ</w>": 6899,
      "Chi_nhánh</w>": 6900,
      "ton_": 6901,
      "ích</w>": 6902,
      "căn_bản</w>": 6903,
      "TC</w>": 6904,
      "24/": 6905,
      "Trung_Hoa</w>": 6906,
      "chuyên_trách</w>": 6907,
      "10-": 6908,
      "trầm</w>": 6909,
      "binh_lính</w>": 6910,
      "1,6</w>": 6911,
      "Nỗi</w>": 6912,
      "sọ</w>": 6913,
      "đầu_bếp</w>": 6914,
      "mật_khẩu</w>": 6915,
      "450</w>": 6916,
      "Quyên</w>": 6917,
      "Quy_chế</w>": 6918,
      "thích_nghi</w>": 6919,
      "hạm</w>": 6920,
      "chỉ_dẫn</w>": 6921,
      "hô</w>": 6922,
      "hiểm</w>": 6923,
      "Tìm</w>": 6924,
      "2.500</w>": 6925,
      "mỳ</w>": 6926,
      "phong_tục</w>": 6927,
      "luận</w>": 6928,
      "Đường_sắt</w>": 6929,
      "miễn_dịch</w>": 6930,
      "nể</w>": 6931,
      "Trường_Sơn</w>": 6932,
      "Vua</w>": 6933,
      "Khải</w>": 6934,
      "vĩnh_viễn</w>": 6935,
      "Tấn_": 6936,
      "tiên</w>": 6937,
      "Dortmund</w>": 6938,
      "đuối</w>": 6939,
      "Cú</w>": 6940,
      "Mô_hình</w>": 6941,
      "GPMB</w>": 6942,
      "ù</w>": 6943,
      "DJ</w>": 6944,
      "Câu_lạc_bộ</w>": 6945,
      "Hương_Giang</w>": 6946,
      "Gar": 6947,
      "Thiết_bị</w>": 6948,
      "Đậu</w>": 6949,
      "cầu_thang</w>": 6950,
      ".com.</w>": 6951,
      "Bắt_đầu</w>": 6952,
      "chủ_đạo</w>": 6953,
      "Thoả_thuận</w>": 6954,
      "like</w>": 6955,
      "Khách_sạn</w>": 6956,
      "Màu</w>": 6957,
      "Vĩnh</w>": 6958,
      "Đại_tướng</w>": 6959,
      "sắc_màu</w>": 6960,
      "thương_lượng</w>": 6961,
      "chiến_lược_gia</w>": 6962,
      "Đàn_ông</w>": 6963,
      "Chọn</w>": 6964,
      "Điều_tra</w>": 6965,
      "Thị</w>": 6966,
      "Tác_phẩm</w>": 6967,
      "tin": 6968,
      "trào</w>": 6969,
      "Scotland</w>": 6970,
      "Damascus</w>": 6971,
      "nguy_hại</w>": 6972,
      "thường_trú</w>": 6973,
      "Nhân_": 6974,
      "cách_biệt</w>": 6975,
      "Trung_đoàn</w>": 6976,
      "chỉ_thị</w>": 6977,
      "nòng</w>": 6978,
      "tha_thứ</w>": 6979,
      "hệ_số</w>": 6980,
      "quỹ_đạo</w>": 6981,
      "TĐ</w>": 6982,
      "Pu": 6983,
      "Vy</w>": 6984,
      "quyết_toán</w>": 6985,
      "Thanh_Hà</w>": 6986,
      "ắc</w>": 6987,
      "đổ_vỡ</w>": 6988,
      "es_": 6989,
      "23/": 6990,
      "quy_luật</w>": 6991,
      "á</w>": 6992,
      "Nay</w>": 6993,
      "bẩm_sinh</w>": 6994,
      "có_thai</w>": 6995,
      "lôi</w>": 6996,
      "thuận</w>": 6997,
      "vật_lý</w>": 6998,
      "thực_ra</w>": 6999,
      "ba_mẹ</w>": 7000,
      "ano": 7001,
      "tù_giam</w>": 7002,
      "Mục_đích</w>": 7003,
      "đực</w>": 7004,
      "Noel</w>": 7005,
      "Mười</w>": 7006,
      "hàn</w>": 7007,
      "1/2</w>": 7008,
      "don</w>": 7009,
      "Liên_hoan</w>": 7010,
      "giai_điệu</w>": 7011,
      "kho": 7012,
      "eri": 7013,
      "dân_làng</w>": 7014,
      "dữ</w>": 7015,
      "Los_Angeles</w>": 7016,
      "3-0</w>": 7017,
      "công_sở</w>": 7018,
      "kiên_nhẫn</w>": 7019,
      "số_một</w>": 7020,
      "soạn</w>": 7021,
      "mũ_bảo_hiểm</w>": 7022,
      "Trung_tướng</w>": 7023,
      "Hạm_đội</w>": 7024,
      "vương_quốc</w>": 7025,
      "Bố_mẹ</w>": 7026,
      "lòng_đường</w>": 7027,
      "Tên_lửa</w>": 7028,
      "Nhà_": 7029,
      "hành_lý</w>": 7030,
      "Đội_tuyển</w>": 7031,
      "sắm</w>": 7032,
      "nội_y</w>": 7033,
      "đột_quỵ</w>": 7034,
      "Robert_": 7035,
      "thẩm_phán</w>": 7036,
      "thay_mặt</w>": 7037,
      "năng</w>": 7038,
      "90": 7039,
      "AI</w>": 7040,
      "tượng_trưng</w>": 7041,
      "Manchester</w>": 7042,
      "SJC</w>": 7043,
      "xu</w>": 7044,
      "nha</w>": 7045,
      "số_hiệu</w>": 7046,
      "nạo_vét</w>": 7047,
      "kết_án</w>": 7048,
      "chì</w>": 7049,
      "mềm_mại</w>": 7050,
      "chi_phối</w>": 7051,
      "1976</w>": 7052,
      "Man_United</w>": 7053,
      "ông_": 7054,
      "Nâng</w>": 7055,
      "Thiếu</w>": 7056,
      "Thế_là</w>": 7057,
      "trả_thù</w>": 7058,
      "Audi</w>": 7059,
      "dấy</w>": 7060,
      "za</w>": 7061,
      "ang_": 7062,
      "nghiệm_thu</w>": 7063,
      "Trung_tá</w>": 7064,
      "tổ_tiên</w>": 7065,
      "CC</w>": 7066,
      "Vậy_mà</w>": 7067,
      "1/8</w>": 7068,
      "lũ_lụt</w>": 7069,
      "tín_ngưỡng</w>": 7070,
      "Tân_Phú</w>": 7071,
      "phần_thưởng</w>": 7072,
      "bỏ_rơi</w>": 7073,
      "dân_thường</w>": 7074,
      "thiếu_niên</w>": 7075,
      "Cận_cảnh</w>": 7076,
      "cá_sấu</w>": 7077,
      "ari</w>": 7078,
      "phấn</w>": 7079,
      "chuyên_khoa</w>": 7080,
      "lang_thang</w>": 7081,
      "Bảo_an</w>": 7082,
      "cây_cảnh</w>": 7083,
      "CATP</w>": 7084,
      "dòng_họ</w>": 7085,
      "11": 7086,
      "tất_yếu</w>": 7087,
      "quanh_năm</w>": 7088,
      "tạo_dựng</w>": 7089,
      "TDTT</w>": 7090,
      "dấu_vết</w>": 7091,
      "Getty</w>": 7092,
      "ran": 7093,
      "hệ_luỵ</w>": 7094,
      "Văn_bản</w>": 7095,
      "nhuyễn</w>": 7096,
      "Cảm_ơn</w>": 7097,
      "hàng_hiệu</w>": 7098,
      "bàn_phím</w>": 7099,
      "st</w>": 7100,
      "tưởng_chừng</w>": 7101,
      "hữu</w>": 7102,
      "cốt_lõi</w>": 7103,
      "ten": 7104,
      "1,8</w>": 7105,
      "giết_mổ</w>": 7106,
      "nhà_riêng</w>": 7107,
      "Sắp</w>": 7108,
      "Bình_Tân</w>": 7109,
      "Đối_tác</w>": 7110,
      "đồ_dùng</w>": 7111,
      "Khán_giả</w>": 7112,
      "#</w>": 7113,
      "cơ_bắp</w>": 7114,
      "nhỉ</w>": 7115,
      "Lạc</w>": 7116,
      "nôn</w>": 7117,
      "keo</w>": 7118,
      "công_phu</w>": 7119,
      "ASIAD</w>": 7120,
      "hữu_hiệu</w>": 7121,
      "băm</w>": 7122,
      "thành_đạt</w>": 7123,
      "Huy_": 7124,
      "chuyên_viên</w>": 7125,
      "Truyền_hình</w>": 7126,
      "trước_kia</w>": 7127,
      "Cao</w>": 7128,
      "Lý_Sơn</w>": 7129,
      "hấp</w>": 7130,
      "hành_xử</w>": 7131,
      "25.000</w>": 7132,
      "Khôi</w>": 7133,
      "hình_dung</w>": 7134,
      "ro</w>": 7135,
      "vs</w>": 7136,
      "ala</w>": 7137,
      "Mua</w>": 7138,
      "oxy_hoá</w>": 7139,
      "13.": 7140,
      "sẹo</w>": 7141,
      "At": 7142,
      "mạnh_tay</w>": 7143,
      "hứng_chịu</w>": 7144,
      "Thăng</w>": 7145,
      "NĐT</w>": 7146,
      "đẩy_lùi</w>": 7147,
      "châu_lục</w>": 7148,
      "thiêng_liêng</w>": 7149,
      "Kiều</w>": 7150,
      "26": 7151,
      "nhất_thiết</w>": 7152,
      "đời_thường</w>": 7153,
      "khoả_thân</w>": 7154,
      "ill": 7155,
      "lịch_trình</w>": 7156,
      "tâm_bão</w>": 7157,
      "xô</w>": 7158,
      "dệt</w>": 7159,
      "gây_rối</w>": 7160,
      "PL</w>": 7161,
      "Cam": 7162,
      "Tư_": 7163,
      "rưỡi</w>": 7164,
      "Vạn_": 7165,
      "dẹp</w>": 7166,
      "AT": 7167,
      "Vietnamnet</w>": 7168,
      "Đa_số</w>": 7169,
      "gu</w>": 7170,
      "phẫn_nộ</w>": 7171,
      "khuẩn</w>": 7172,
      "công_": 7173,
      "thí_nghiệm</w>": 7174,
      "Điện_Biên_Phủ</w>": 7175,
      "sương</w>": 7176,
      "gián_đoạn</w>": 7177,
      "í": 7178,
      "giặt</w>": 7179,
      "13/": 7180,
      "xé</w>": 7181,
      "hậu_thuẫn</w>": 7182,
      "Sina</w>": 7183,
      "Pan": 7184,
      "dệt_may</w>": 7185,
      "chạy_đua</w>": 7186,
      "CD</w>": 7187,
      "ex</w>": 7188,
      "1973</w>": 7189,
      "Cách_mạng</w>": 7190,
      "XIV</w>": 7191,
      "cọc</w>": 7192,
      "chót</w>": 7193,
      "Hàng_loạt</w>": 7194,
      "trăng</w>": 7195,
      "rêu</w>": 7196,
      "vắc_xin</w>": 7197,
      "Hậu_quả</w>": 7198,
      "năng_khiếu</w>": 7199,
      "sành_điệu</w>": 7200,
      "US": 7201,
      "oC</w>": 7202,
      "khởi_điểm</w>": 7203,
      "cải_lương</w>": 7204,
      "áo_khoác</w>": 7205,
      "khát_vọng</w>": 7206,
      "Đề_nghị</w>": 7207,
      "vé_số</w>": 7208,
      "thuỷ_tinh</w>": 7209,
      "Wal": 7210,
      "giò</w>": 7211,
      "dứa</w>": 7212,
      "cơ_sở_dữ_liệu</w>": 7213,
      "hộ_chiếu</w>": 7214,
      "thung_lũng</w>": 7215,
      "_tr": 7216,
      "bịt</w>": 7217,
      "Đông_Anh</w>": 7218,
      "UEFA</w>": 7219,
      "hi": 7220,
      "for</w>": 7221,
      "hơn_bao_giờ_hết</w>": 7222,
      "thông_cảm</w>": 7223,
      "nhận_dạng</w>": 7224,
      "19.": 7225,
      "1978</w>": 7226,
      "sữa_chua</w>": 7227,
      "đồng_phạm</w>": 7228,
      "Hoàng_Văn_": 7229,
      "Lầu_Năm_Góc</w>": 7230,
      "ra_tay</w>": 7231,
      "ê</w>": 7232,
      "cơn_sốt</w>": 7233,
      "xác_lập</w>": 7234,
      "lệ</w>": 7235,
      "khởi</w>": 7236,
      "biết_ơn</w>": 7237,
      "phần_cứng</w>": 7238,
      "nghị_định</w>": 7239,
      "ker</w>": 7240,
      "c-": 7241,
      "lén</w>": 7242,
      "trình_duyệt</w>": 7243,
      "San_": 7244,
      "giã</w>": 7245,
      "bàn_bạc</w>": 7246,
      "hang_động</w>": 7247,
      "khích_lệ</w>": 7248,
      "up</w>": 7249,
      "đại_": 7250,
      "Lá</w>": 7251,
      "Airlines</w>": 7252,
      "để_dành</w>": 7253,
      "ĐTVN</w>": 7254,
      "ái</w>": 7255,
      "phím</w>": 7256,
      "12%</w>": 7257,
      "Bích</w>": 7258,
      "cơ_khí</w>": 7259,
      "SE": 7260,
      "Bình_Minh</w>": 7261,
      "thâm</w>": 7262,
      "con_tin</w>": 7263,
      "ts": 7264,
      "ăn_": 7265,
      "Giải_pháp</w>": 7266,
      "IMF</w>": 7267,
      "siêu_âm</w>": 7268,
      "/": 7269,
      "kov</w>": 7270,
      "đặc_tính</w>": 7271,
      "ủ</w>": 7272,
      "bất_kể</w>": 7273,
      "inh</w>": 7274,
      "hộ_khẩu</w>": 7275,
      "Bích_": 7276,
      "Màn</w>": 7277,
      "Thanh_Trì</w>": 7278,
      "bán_dâm</w>": 7279,
      "gia_chủ</w>": 7280,
      "tỉ_mỉ</w>": 7281,
      "ama</w>": 7282,
      "mồ_côi</w>": 7283,
      "Gia_Lâm</w>": 7284,
      "file</w>": 7285,
      "hộ_tống</w>": 7286,
      "Noctuidae</w>": 7287,
      "ach": 7288,
      "10,": 7289,
      "gọn_gàng</w>": 7290,
      "Serbia</w>": 7291,
      "tái_xuất</w>": 7292,
      "Peru</w>": 7293,
      "thiên_đường</w>": 7294,
      "der": 7295,
      "sa_mạc</w>": 7296,
      "SUV</w>": 7297,
      "Lưu</w>": 7298,
      "Nguyên_": 7299,
      "Hân</w>": 7300,
      "trút</w>": 7301,
      "150.000</w>": 7302,
      "kiểm</w>": 7303,
      "chu": 7304,
      "ghi_chép</w>": 7305,
      "oo": 7306,
      "khéo</w>": 7307,
      "MB</w>": 7308,
      "bao_bì</w>": 7309,
      "khắt_khe</w>": 7310,
      "biệt</w>": 7311,
      "Hà_Hồ</w>": 7312,
      "đảo_chính</w>": 7313,
      "ani": 7314,
      "37": 7315,
      "Bra": 7316,
      "lập_trường</w>": 7317,
      "ash": 7318,
      "ngang_nhiên</w>": 7319,
      "Năm_ngoái</w>": 7320,
      "Năng_lượng</w>": 7321,
      "tế-xã</w>": 7322,
      "17.": 7323,
      "bàng_hoàng</w>": 7324,
      "F-": 7325,
      "nhộn_nhịp</w>": 7326,
      "TƯ</w>": 7327,
      "tất</w>": 7328,
      "độc_thân</w>": 7329,
      "UAE</w>": 7330,
      "Tam</w>": 7331,
      "phóng_xạ</w>": 7332,
      "Nguyễn_Thị_Kim_Ngân</w>": 7333,
      "Em": 7334,
      "khát</w>": 7335,
      "thiên_thần</w>": 7336,
      "cầu_kỳ</w>": 7337,
      "sp": 7338,
      "Pal": 7339,
      "1974</w>": 7340,
      "Nadal</w>": 7341,
      "trình_tự</w>": 7342,
      "Hội_đồng_quản_trị</w>": 7343,
      "đức</w>": 7344,
      "kỳ_diệu</w>": 7345,
      "Hùng_": 7346,
      "gieo</w>": 7347,
      "chủ_nhật</w>": 7348,
      "stress</w>": 7349,
      "lặng</w>": 7350,
      "be</w>": 7351,
      "vùng_sâu</w>": 7352,
      "Sa_Pa</w>": 7353,
      "115</w>": 7354,
      "tây_nam</w>": 7355,
      "nương</w>": 7356,
      "2.0</w>": 7357,
      "ver</w>": 7358,
      "hồn_nhiên</w>": 7359,
      "ce": 7360,
      "Tổng_Thư_ký</w>": 7361,
      "lĩnh</w>": 7362,
      "Cho_nên</w>": 7363,
      "tự_phát</w>": 7364,
      "Phường</w>": 7365,
      "phân_luồng</w>": 7366,
      "thuở</w>": 7367,
      "lúng_túng</w>": 7368,
      "VKS</w>": 7369,
      "hội_chứng</w>": 7370,
      "Mùi</w>": 7371,
      "Sơn_Tây</w>": 7372,
      "Viet": 7373,
      "TN": 7374,
      "đăng_cai</w>": 7375,
      "39": 7376,
      "vá</w>": 7377,
      "thấu</w>": 7378,
      "laser</w>": 7379,
      "Cánh</w>": 7380,
      "Tuổi_trẻ</w>": 7381,
      "ur</w>": 7382,
      "Uruguay</w>": 7383,
      "Uỷ_ban_Nhân_dân</w>": 7384,
      "Sư_đoàn</w>": 7385,
      "Mat": 7386,
      "ra_sức</w>": 7387,
      "TMCP</w>": 7388,
      "Tuỳ</w>": 7389,
      "ao": 7390,
      "khiêu_khích</w>": 7391,
      "chuyên_án</w>": 7392,
      "mô_phỏng</w>": 7393,
      "Miss_": 7394,
      "bộ_nhớ</w>": 7395,
      "KT</w>": 7396,
      "Florida</w>": 7397,
      "mác</w>": 7398,
      "5,5</w>": 7399,
      "khuất</w>": 7400,
      "Bắt</w>": 7401,
      "Tháp</w>": 7402,
      "bo</w>": 7403,
      "Bloomberg</w>": 7404,
      "3-1</w>": 7405,
      "Lớn</w>": 7406,
      "Hường</w>": 7407,
      "Trước_mắt</w>": 7408,
      "vo": 7409,
      "đấm</w>": 7410,
      "ke": 7411,
      "Quán</w>": 7412,
      "tiền_nhiệm</w>": 7413,
      "Sở_hữu</w>": 7414,
      "quần_vợt</w>": 7415,
      "hỗn_loạn</w>": 7416,
      "Gò_Vấp</w>": 7417,
      "Xuất_hiện</w>": 7418,
      "i_t": 7419,
      "Pri": 7420,
      "cuộc_chơi</w>": 7421,
      "Minh_Hằng</w>": 7422,
      "ghi_âm</w>": 7423,
      "lấn</w>": 7424,
      "Tôn_": 7425,
      "ì</w>": 7426,
      "ge</w>": 7427,
      "hoảng_loạn</w>": 7428,
      "mộc</w>": 7429,
      "thu": 7430,
      "2/3</w>": 7431,
      "lùm</w>": 7432,
      "Đồng_": 7433,
      "Thực_phẩm</w>": 7434,
      "Che": 7435,
      "Đưa</w>": 7436,
      "huỷ_hoại</w>": 7437,
      "bảo_trợ</w>": 7438,
      "D.": 7439,
      "Na": 7440,
      "uy": 7441,
      "vùi</w>": 7442,
      "Hoàng_Thị_": 7443,
      "trí_thức</w>": 7444,
      "Nàng</w>": 7445,
      "bắp</w>": 7446,
      "thời_lượng</w>": 7447,
      "Trần_Ngọc_": 7448,
      "sưu_tầm</w>": 7449,
      "an_ủi</w>": 7450,
      "cẩn_trọng</w>": 7451,
      "60": 7452,
      ".0": 7453,
      "Bất_động_sản</w>": 7454,
      "Yu": 7455,
      "Ankara</w>": 7456,
      "truyền_cảm</w>": 7457,
      "nhiếp_ảnh</w>": 7458,
      "trì_hoãn</w>": 7459,
      "rút_tiền</w>": 7460,
      "Sức</w>": 7461,
      "ida</w>": 7462,
      "cấm_vận</w>": 7463,
      "bao_phủ</w>": 7464,
      "đắt_giá</w>": 7465,
      "Đ.": 7466,
      "đầu_tay</w>": 7467,
      "Mer": 7468,
      "thông_thoáng</w>": 7469,
      "Hùng_Vương</w>": 7470,
      "Taliban</w>": 7471,
      "chính_quy</w>": 7472,
      "Huyền_": 7473,
      "san_hô</w>": 7474,
      "gián_tiếp</w>": 7475,
      "bộ_đồ</w>": 7476,
      "Han": 7477,
      "tum</w>": 7478,
      "ngoại_trừ</w>": 7479,
      "tội_ác</w>": 7480,
      "Vua_": 7481,
      "Cuốn</w>": 7482,
      "cấy</w>": 7483,
      "15,": 7484,
      "Kỳ_Anh</w>": 7485,
      "Trung_thu</w>": 7486,
      "Dubai</w>": 7487,
      "Vietnam_": 7488,
      "Hỏi</w>": 7489,
      "thiếu_thốn</w>": 7490,
      "Nm</w>": 7491,
      "quần_thể</w>": 7492,
      "quái</w>": 7493,
      "sơ_mi</w>": 7494,
      "Hoài_": 7495,
      "địa_chất</w>": 7496,
      "ân</w>": 7497,
      "phản_bội</w>": 7498,
      "dư_nợ</w>": 7499,
      "Lai</w>": 7500,
      "Valencia</w>": 7501,
      "học_đường</w>": 7502,
      "Bữa</w>": 7503,
      "Tuấn_Hưng</w>": 7504,
      "trí_nhớ</w>": 7505,
      "đàn_anh</w>": 7506,
      "Phòng_chống</w>": 7507,
      "Dẫu</w>": 7508,
      "Kiến_trúc</w>": 7509,
      "bể_bơi</w>": 7510,
      "măng</w>": 7511,
      "bán_chạy</w>": 7512,
      "nguyên_vẹn</w>": 7513,
      "biến_dạng</w>": 7514,
      "Đăng_": 7515,
      "tiến_công</w>": 7516,
      "bỗng_dưng</w>": 7517,
      "Gương_mặt</w>": 7518,
      "buồng</w>": 7519,
      "tham</w>": 7520,
      "Texas</w>": 7521,
      "hư_hại</w>": 7522,
      "điệp_viên</w>": 7523,
      "Bas": 7524,
      "Đ.</w>": 7525,
      "Dân_tộc</w>": 7526,
      "ngứa</w>": 7527,
      "ục</w>": 7528,
      "80.000</w>": 7529,
      "22": 7530,
      "lung_linh</w>": 7531,
      "đò</w>": 7532,
      "ử</w>": 7533,
      "nhốt</w>": 7534,
      "rầm_rộ</w>": 7535,
      "Khê</w>": 7536,
      "Tiên_": 7537,
      "bầu_chọn</w>": 7538,
      "đông_lạnh</w>": 7539,
      "min": 7540,
      "đơn_phương</w>": 7541,
      "mệnh</w>": 7542,
      "Thần</w>": 7543,
      "võ_sĩ</w>": 7544,
      "hình_thể</w>": 7545,
      "cử_nhân</w>": 7546,
      "nhập_cảnh</w>": 7547,
      "Eu": 7548,
      "độ_ẩm</w>": 7549,
      "18.": 7550,
      "chậm_trễ</w>": 7551,
      "đón_tiếp</w>": 7552,
      "Đấy</w>": 7553,
      "gầy</w>": 7554,
      "áp_thấp_nhiệt_đới</w>": 7555,
      "che_giấu</w>": 7556,
      "Lưu_ý</w>": 7557,
      "Củ_Chi</w>": 7558,
      "Bất_chấp</w>": 7559,
      "truy_tìm</w>": 7560,
      "Đệ</w>": 7561,
      "Hảo</w>": 7562,
      "dưỡng_chất</w>": 7563,
      "tế</w>": 7564,
      "xót_xa</w>": 7565,
      "sào</w>": 7566,
      "đa_cấp</w>": 7567,
      "SGK</w>": 7568,
      "ràng_buộc</w>": 7569,
      "am_": 7570,
      "Lý_Nhã_Kỳ</w>": 7571,
      "thân_nhân</w>": 7572,
      "chiều_hướng</w>": 7573,
      "ức_chế</w>": 7574,
      "ứ</w>": 7575,
      "15.": 7576,
      "sừng</w>": 7577,
      "đậm_đà</w>": 7578,
      "Cung</w>": 7579,
      "xa_xôi</w>": 7580,
      "Quan_trọng</w>": 7581,
      "chạm_trán</w>": 7582,
      "to_": 7583,
      "du_thuyền</w>": 7584,
      "cholesterol</w>": 7585,
      "thua_kém</w>": 7586,
      "M-": 7587,
      "cá_mập</w>": 7588,
      "yo": 7589,
      "cừu</w>": 7590,
      "SH</w>": 7591,
      "tay_chân</w>": 7592,
      ":": 7593,
      "trọng</w>": 7594,
      "trục_trặc</w>": 7595,
      "Ser": 7596,
      "VnExpress</w>": 7597,
      "Cụm</w>": 7598,
      "cử_chỉ</w>": 7599,
      "trái_ngược</w>": 7600,
      "ốp</w>": 7601,
      "sắn</w>": 7602,
      "mặn_mà</w>": 7603,
      "Vinamilk</w>": 7604,
      "Gra": 7605,
      "linh</w>": 7606,
      "Quan_điểm</w>": 7607,
      "mong_chờ</w>": 7608,
      "mở_đường</w>": 7609,
      "chiếm_đóng</w>": 7610,
      "Thượng_tá</w>": 7611,
      "1,4</w>": 7612,
      "gặt_hái</w>": 7613,
      "vũ_khí_hoá_học</w>": 7614,
      "Thạnh</w>": 7615,
      "bất_kì</w>": 7616,
      "tệ_nạn</w>": 7617,
      "16.": 7618,
      "ra_": 7619,
      "Á": 7620,
      "Air": 7621,
      "WB</w>": 7622,
      "lâm_sàng</w>": 7623,
      "lạc_hậu</w>": 7624,
      "đầu_cơ</w>": 7625,
      "Zika</w>": 7626,
      "Huyền_My</w>": 7627,
      "ban_ngành</w>": 7628,
      "bánh_xe</w>": 7629,
      "hợp_tác_xã</w>": 7630,
      "Nguyễn_Quang_": 7631,
      "vác</w>": 7632,
      "toạ_lạc</w>": 7633,
      "n_t": 7634,
      "Mặt</w>": 7635,
      "thực_đơn</w>": 7636,
      "30-": 7637,
      "lời_lẽ</w>": 7638,
      "hài_cốt</w>": 7639,
      "CA": 7640,
      "thông_tư</w>": 7641,
      "Col": 7642,
      "ngày_tháng</w>": 7643,
      "thi": 7644,
      "we": 7645,
      "May</w>": 7646,
      "son_": 7647,
      "thanh_lý</w>": 7648,
      "đông_đúc</w>": 7649,
      "bất_bình</w>": 7650,
      "ell</w>": 7651,
      "cà_rốt</w>": 7652,
      "phát_nổ</w>": 7653,
      "hét</w>": 7654,
      "ir</w>": 7655,
      "bàn_chân</w>": 7656,
      "Nội</w>": 7657,
      "lan": 7658,
      "hacker</w>": 7659,
      "liên_quân</w>": 7660,
      "tinh_trùng</w>": 7661,
      "Tehran</w>": 7662,
      "đường_cong</w>": 7663,
      "ino": 7664,
      "bí_thư</w>": 7665,
      "Hạt</w>": 7666,
      "xích</w>": 7667,
      "pa</w>": 7668,
      "Hình</w>": 7669,
      "12.000</w>": 7670,
      "1950</w>": 7671,
      "Bel": 7672,
      "thấu_hiểu</w>": 7673,
      "Tử</w>": 7674,
      "Mong</w>": 7675,
      "Vin": 7676,
      "massage</w>": 7677,
      "Nguyễn_Hoàng_": 7678,
      "cây_số</w>": 7679,
      "đường_hầm</w>": 7680,
      "170</w>": 7681,
      "lều</w>": 7682,
      "vùng_xa</w>": 7683,
      "liên_thông</w>": 7684,
      "mong_manh</w>": 7685,
      "đẹp_trai</w>": 7686,
      "tes</w>": 7687,
      "Cúp</w>": 7688,
      "phòng_bệnh</w>": 7689,
      "Olympic_": 7690,
      "BlackBerry</w>": 7691,
      "Địa_Trung_Hải</w>": 7692,
      "GV</w>": 7693,
      "Ca</w>": 7694,
      "Điện_thoại</w>": 7695,
      "Thanh_Bình</w>": 7696,
      "Tình_cảm</w>": 7697,
      "1,7</w>": 7698,
      "res": 7699,
      "Vượt</w>": 7700,
      "Kẻ</w>": 7701,
      "tử_tế</w>": 7702,
      "can": 7703,
      "hoàng_tử</w>": 7704,
      "khát_khao</w>": 7705,
      "75%</w>": 7706,
      "bao_trùm</w>": 7707,
      "che": 7708,
      "ero": 7709,
      "AS": 7710,
      "ám_sát</w>": 7711,
      "Dường_như</w>": 7712,
      "Atletico</w>": 7713,
      "400.000</w>": 7714,
      "giang_hồ</w>": 7715,
      "mẹo</w>": 7716,
      "GDVN</w>": 7717,
      "vững_vàng</w>": 7718,
      "bán_đấu_giá</w>": 7719,
      "S-400</w>": 7720,
      "mỉm</w>": 7721,
      "Hàng_không</w>": 7722,
      "địa_danh</w>": 7723,
      "Cát</w>": 7724,
      "đá_quý</w>": 7725,
      "MW</w>": 7726,
      "Moon</w>": 7727,
      "heroin</w>": 7728,
      "hỏi_thăm</w>": 7729,
      "yl": 7730,
      "Dựa</w>": 7731,
      "Giá_trị</w>": 7732,
      "Uyên</w>": 7733,
      "phòng_tránh</w>": 7734,
      "khống</w>": 7735,
      "phấn_khích</w>": 7736,
      "Sóc_Sơn</w>": 7737,
      "khuyến_nghị</w>": 7738,
      "rụi</w>": 7739,
      "hiền</w>": 7740,
      "cầu_hôn</w>": 7741,
      "ơ</w>": 7742,
      "hậu_cần</w>": 7743,
      "14.": 7744,
      "Nguyễn_Hồng_": 7745,
      "kẹp</w>": 7746,
      "GĐ</w>": 7747,
      "bà_xã</w>": 7748,
      "Gươm</w>": 7749,
      "cao_quý</w>": 7750,
      "Diễn</w>": 7751,
      "Đơn_cử</w>": 7752,
      "Nguyễn_Trọng_": 7753,
      "bản_sao</w>": 7754,
      "làm_thuê</w>": 7755,
      "Cơ_sở</w>": 7756,
      "45": 7757,
      "gia_công</w>": 7758,
      ".000-": 7759,
      "Bưu_điện</w>": 7760,
      "VinaPhone</w>": 7761,
      "Tuyển</w>": 7762,
      "bào_chữa</w>": 7763,
      "gram</w>": 7764,
      "Hợp</w>": 7765,
      "nhân_quyền</w>": 7766,
      "les</w>": 7767,
      "kịch_tính</w>": 7768,
      "Ninh_": 7769,
      "Bùi_Văn_": 7770,
      "quang</w>": 7771,
      "đầu_gối</w>": 7772,
      "Tuân</w>": 7773,
      "Tác_giả</w>": 7774,
      "phương_hướng</w>": 7775,
      "thuế_thu_nhập</w>": 7776,
      "ví_như</w>": 7777,
      "quảng_trường</w>": 7778,
      "Huy_chương</w>": 7779,
      "Vương_Đình_Huệ</w>": 7780,
      "Ngọc_Anh</w>": 7781,
      "Donetsk</w>": 7782,
      "Hào</w>": 7783,
      "tương_xứng</w>": 7784,
      "vội_vã</w>": 7785,
      "ICTnews</w>": 7786,
      "lột_xác</w>": 7787,
      "ngập_lụt</w>": 7788,
      "cầm_đầu</w>": 7789,
      "tạt</w>": 7790,
      "điện_toán</w>": 7791,
      "ức</w>": 7792,
      "xùm</w>": 7793,
      "Quyết</w>": 7794,
      "nhăn</w>": 7795,
      "AFC</w>": 7796,
      "kiến_trúc_sư</w>": 7797,
      "ae": 7798,
      "độc_tố</w>": 7799,
      "điểm_nóng</w>": 7800,
      "DA</w>": 7801,
      "lí_do</w>": 7802,
      "Xá</w>": 7803,
      "sáng_giá</w>": 7804,
      "Victoria</w>": 7805,
      "201": 7806,
      "Tiếp_theo</w>": 7807,
      "sát_thủ</w>": 7808,
      "ans</w>": 7809,
      "Wi": 7810,
      "Far": 7811,
      "tin_tặc</w>": 7812,
      "thoả_đáng</w>": 7813,
      "rót</w>": 7814,
      "1977</w>": 7815,
      "Đồng_bằng</w>": 7816,
      "V-": 7817,
      "01/": 7818,
      "hiệp_hội</w>": 7819,
      "giải_khát</w>": 7820,
      "mắm</w>": 7821,
      "1954</w>": 7822,
      "sk</w>": 7823,
      "VGP</w>": 7824,
      "Khương</w>": 7825,
      "diễu_hành</w>": 7826,
      "quấn</w>": 7827,
      "Chất</w>": 7828,
      "Lộc_": 7829,
      "tạng</w>": 7830,
      "calo</w>": 7831,
      "Táo</w>": 7832,
      "thuật</w>": 7833,
      "bùng</w>": 7834,
      "phản_biện</w>": 7835,
      "n_th": 7836,
      "ite</w>": 7837,
      "Lực</w>": 7838,
      "Chi_phí</w>": 7839,
      "ú</w>": 7840,
      "đương_đại</w>": 7841,
      "viếng</w>": 7842,
      "tình_nguyện_viên</w>": 7843,
      "ina_": 7844,
      "Federer</w>": 7845,
      "khoai</w>": 7846,
      "mộng</w>": 7847,
      "lâm_nghiệp</w>": 7848,
      "XI</w>": 7849,
      "Wi-Fi</w>": 7850,
      "Trước_hết</w>": 7851,
      "Pha</w>": 7852,
      "đũa</w>": 7853,
      "quỷ</w>": 7854,
      "yêu_quý</w>": 7855,
      "Xuyên</w>": 7856,
      "ry": 7857,
      "ng_t": 7858,
      "Da": 7859,
      "ale</w>": 7860,
      "Cổ_": 7861,
      "lâu_đài</w>": 7862,
      "cực_đại</w>": 7863,
      "khởi_sắc</w>": 7864,
      "Cerambycidae</w>": 7865,
      "nữ_giới</w>": 7866,
      "mer": 7867,
      "tràn_đầy</w>": 7868,
      "4-5</w>": 7869,
      "Galaxy_Note</w>": 7870,
      "thầy_cô_giáo</w>": 7871,
      "nhiệt_điện</w>": 7872,
      "nu": 7873,
      "Chủ_nhật</w>": 7874,
      "Mazda</w>": 7875,
      "tuổi_tác</w>": 7876,
      "cor": 7877,
      "20.": 7878,
      "siêu_sao</w>": 7879,
      "WHO</w>": 7880,
      "nội_trợ</w>": 7881,
      "cầu_nối</w>": 7882,
      "bàn_tán</w>": 7883,
      "tiêm_chủng</w>": 7884,
      "Hồng_Nhung</w>": 7885,
      "thông_cáo</w>": 7886,
      "Tóc_Tiên</w>": 7887,
      "X-": 7888,
      "ess": 7889,
      "16,": 7890,
      "trong_sạch</w>": 7891,
      "khai_quật</w>": 7892,
      "nhiệt_huyết</w>": 7893,
      "lưới_điện</w>": 7894,
      "trên_dưới</w>": 7895,
      "phòng_vệ</w>": 7896,
      "trèo</w>": 7897,
      "Ly": 7898,
      "thượng</w>": 7899,
      "mìn</w>": 7900,
      "Quý_": 7901,
      "thoại</w>": 7902,
      "Chi_Pu</w>": 7903,
      "dân_sinh</w>": 7904,
      "18,": 7905,
      "bài_thuốc</w>": 7906,
      "1967</w>": 7907,
      "1.3": 7908,
      "Bur": 7909,
      "Kiến_Thức</w>": 7910,
      "hồi_hộp</w>": 7911,
      "Tín</w>": 7912,
      "Zing.vn</w>": 7913,
      "kế_tiếp</w>": 7914,
      "bãi_bỏ</w>": 7915,
      "Đông_Nhi</w>": 7916,
      "Công_ước</w>": 7917,
      "thề</w>": 7918,
      "biên_tập</w>": 7919,
      "thuế_suất</w>": 7920,
      "kinh_dị</w>": 7921,
      "Mac": 7922,
      "xế</w>": 7923,
      "ình</w>": 7924,
      "Nguyễn_Trãi</w>": 7925,
      "nam_nữ</w>": 7926,
      "phản</w>": 7927,
      "ex": 7928,
      "LĐBĐ</w>": 7929,
      "bẻ</w>": 7930,
      "si</w>": 7931,
      "điền</w>": 7932,
[...]
